#version: 0.2
t h
y o
i n
a n
yo u</w>
e r
th e</w>
o u
h a
o n
in g</w>
t o</w>
e a
e r</w>
l l</w>
' s</w>
n o
i s</w>
m e</w>
i t
r e</w>
e d</w>
i t</w>
' t</w>
v e</w>
e n
an d</w>
. .</w>
. ..</w>
s t
i n</w>
th a
w a
yo u
o r
l i
c a
o n</w>
m a
e n</w>
w ha
w h
s t</w>
e s</w>
o f</w>
o r</w>
g o
i '
er e</w>
tha t</w>
r e
r i
wha t</w>
s h
r o
no w</w>
t i
l o
s e</w>
g h
k e</w>
ou t</w>
d i
th e
b e
b u
l a
e t</w>
on 't</w>
l y</w>
l d</w>
l e</w>
gh t</w>
s e
a r
c o
w e
th is</w>
h o
d on't</w>
s a
b e</w>
d o</w>
f or</w>
e v
i' m</w>
t a
m y</w>
k now</w>
ha ve</w>
' re</w>
s o
r a
s i
h e
w e</w>
you r</w>
m e
c e</w>
a b
d o
wa s</w>
no t</w>
h e</w>
r ea
n o</w>
u st</w>
h i
c k</w>
t 's</w>
l e
th ing</w>
s u
w it
on e</w>
it 's</w>
t o
a re</w>
bu t</w>
u n
wit h</w>
n 't</w>
m o
a ll</w>
n e
t e
j ust</w>
th in
t t
ou ld</w>
w an
g et</w>
a l
li ke</w>
f i
d a
b o
c h</w>
ab out</w>
s o</w>
m i
b a
you 're</w>
w i
i f</w>
s s</w>
l l
c k
h ere</w>
u p</w>
p o
the y</w>
th er</w>
hi m</w>
ca n</w>
go t</w>
a t</w>
g o</w>
f u
w or
en t</w>
d e
g u
r y</w>
wan t</w>
ho w</w>
ri ght</w>
tha t's</w>
thin k</w>
so me
f a
y ea
th ere</w>
lo o
c h
d n't</w>
ev er</w>
g i
t s</w>
we ll</w>
p p
a n</w>
d y</w>
l ea
f e
p e
k ing</w>
h er</w>
t e</w>
e 's</w>
p a
ou n
ma n</w>
go ing</w>
di d</w>
wa y</w>
wh y</w>
sh e</w>
k i
d s</w>
o d</w>
w n</w>
u r
n i
g a
r u
c an
h ea
y es</w>
se e</w>
y s</w>
a s</w>
d e</w>
in d</w>
c on
o h</w>
' ll</w>
p ro
co m
c t
e x
i d</w>
co me</w>
ti on</w>
t er</w>
r s</w>
h is</w>
wh en</w>
wh o</w>
l ly</w>
go od</w>
u s</w>
v er
g e
g e</w>
f ro
ti me</w>
o p
c i
t h</w>
yea h</w>
wh ere</w>
u ></w>
fro m</w>
te ll</w>
p la
v i
s n't</w>
can 't</w>
so me</w>
n a
an y
he 's</w>
q u
be en</w>
er s</w>
i' ll</w>
wi ll</w>
o f
w ere</w>
st i
f or
in e</w>
p u
ta l
a y</w>
ba ck</w>
p i
u se</w>
sa y</w>
ev er
ou r</w>
w ould</w>
an y</w>
the m</w>
a l</w>
l it
di dn't</w>
t ed</w>
th en</w>
on g</w>
m u
f o
b i
loo k</w>
g h</w>
c ould</w>
p ar
k s</w>
th er
n a</w>
a s
j o
ha d</w>
ta ke</w>
p er
m ea
n ever</w>
oun d</w>
m on
s ed</w>
p re
c ou
some thing</w>
' ve</w>
v er</w>
sh o
i' ve</w>
y ing</w>
t w
mo re</w>
e l
d ea
g s</w>
un d
th ou
t y</w>
da y</w>
mea n</w>
l f</w>
wha t's</w>
c u
k e
t er
o k
su re</w>
to o</w>
m b
r an
f e</w>
ha pp
c t</w>
ha r
b y</w>
ma ke</w>
t le</w>
rea lly</w>
a f
tt er</w>
the y
we 're</w>
do wn</w>
l u
lit tle</w>
en d</w>
s h</w>
s p
' d</w>
ma r
o ther</w>
ok ay</w>
s or
r ed</w>
g on
s on</w>
ca use</w>
gon na</w>
h u
c e
e p</w>
r ou
pe op
ma y
i r</w>
e l</w>
sa id</w>
o ver</w>
peop le</w>
of f</w>
bo dy</w>
e y</w>
on ly</w>
st a
se lf</w>
ne ed</w>
may be</w>
ver y</w>
s c
l dn't</w>
st o
a m</w>
d ing</w>
l et</w>
ther e's</w>
m in
b le</w>
m or
m p
tw o</w>
m r</w>
t ing</w>
ne w</w>
< /
f ri
ha s</w>
gi ve</w>
mu ch</w>
wh o
s in
e ss</w>
th an
any thing</w>
m ent</w>
d u
s si
</ u></w>
< u></w>
r d</w>
sh ould</w>
ou s</w>
ever y
fu ck
he l
ev en</w>
v ing</w>
j e
t ra
sor ry</w>
w o
on s</w>
st ar
wh i
be cause</w>
tal k</w>
lo ve</w>
thou ght</w>
w r
th o
s s
do ing</w>
ll ed</w>
j a
fi r
ni ght</w>
ca ll</w>
no thing</w>
k ed</w>
p lea
a ga
they 're</w>
re e</w>
mb er</w>
in to</w>
fo re</w>
t r
wor k</w>
sh e's</w>
si r</w>
i' d</w>
n ing</w>
it e</w>
be li
e ve</w>
st u
sh it</w>
be fore</w>
en 't</w>
li fe</w>
h ou
d er</w>
an t</w>
wa ys</w>
f ind</w>
tha n</w>
sti ll</w>
a c
you 've</w>
m s</w>
fu l</w>
gi r
ar ound</w>
to ld</w>
t u
s er
happ en
the se</w>
fir st</w>
c hi
l ong</w>
mon ey</w>
thin gs</w>
la st</w>
und er
o k</w>
- -
p e</w>
be tter</w>
b ea
st and</w>
t ur
it y</w>
t ri
hel p</w>
l an
ou ldn't</w>
he y</w>
m an
ch an
i ght</w>
a d
m es</w>
m ust</w>
al ways</w>
pla ce</w>
tho se</w>
r in
g ra
beli eve</w>
w on't</w>
w s</w>
pro b
t ru
pu t</w>
p ri
plea se</w>
e m</w>
cou r
g rea
yea rs</w>
l es</w>
do es</w>
af ter</w>
v es</w>
tt a</w>
i sn't</w>
h an
a way</w>
en ce</w>
gu y</w>
d er
o ld</w>
c ra
a ct
f t</w>
tt ing</w>
c lo
s pe
go d</w>
c he
f in
ro o
al ly</w>
aga in</w>
k no
le t's</w>
do e
the ir</w>
doe sn't</w>
ea r
m en</w>
f f
li st
re me
ke ep</w>
n e</w>
t ry</w>
p s</w>
ho me</w>
i l
g er</w>
i r
b ro
da m
fe el</w>
he ll</w>
it i
na me</w>
grea t</w>
si de</w>
bi g</w>
o l</w>
lo t</w>
ro w</w>
ca r
you 'll</w>
ou gh</w>
k ind</w>
v ed</w>
we 'll</w>
k es</w>
y 's</w>
c or
p h
wa l
ll ing</w>
ba d</w>
fu ck</w>
c ha
st er</w>
min u
every thing</w>
dea d</w>
rea dy</w>
reme mber</w>
v e
w ouldn't</w>
cour se</w>
li ve</w>
we e
ki ll</w>
t es</w>
hu h</w>
f f</w>
th ree</w>
under stand</w>
m er
wa it</w>
lo w</w>
g en
a in
ma de</w>
hea d</w>
p po
gu ess</w>
a te</w>
wr ong</w>
roo m</w>
rou gh</w>
tal king</w>
i l</w>
ea r</w>
n ed</w>
mi ght</w>
as k</w>
t ch</w>
than k</w>
happen ed</w>
ain 't</w>
j u
u h</w>
d ed</w>
m ind</w>
lea ve</w>
gir l</w>
sto p</w>
r ing</w>
qu e
t on
hea r</w>
hou se</w>
ever y</w>
mo st</w>
st or
wan ted</w>
sh i
l s</w>
c oun
rea l</w>
s en
list en</w>
el se</w>
f ine</w>
l li
you r
i m
n y</w>
fri end</w>
l d
s ha
wha t
n u
th rough</w>
en ough</w>
go tta</w>
d one</w>
w er</w>
ni ce</w>
ca me</w>
in ter
ca re</w>
your self</w>
m m
ge tting</w>
fa ther</w>
b rea
m en
h on
a tion</w>
an other</w>
fuck ing</w>
some one</w>
tt y</w>
wa sn't</w>
bo y</w>
y -
o wn</w>
y a</w>
t en</w>
su ppo
st ay</w>
yo ne</w>
le ft</w>
s y</w>
dam n</w>
c ti
ti mes</w>
sa w</w>
v o
ca r</w>
wor ld</w>
c har
it s</w>
c la
in t</w>
d an
com p
fi ve</w>
be ing</w>
jo b</w>
com ing</w>
ab le</w>
c re
k new</w>
l t</w>
l ing</w>
mo ther</w>
a t
ck s</w>
ri ed</w>
m y
sa me</w>
e st
hea rd</w>
c es</w>
w ent</w>
wi th
s on
ha v
tr ying</w>
le ss</w>
t en
ll s</w>
than ks</w>
h ur
ct or</w>
you 'd</w>
loo king</w>
l la
who le</w>
gu ys</w>
ma y</w>
whi ch</w>
p t</w>
se en</w>
ck ed</w>
r un
l on
we 've</w>
c er
z e</w>
di e</w>
a pp
whi le</w>
u sed</w>
g re
n er</w>
s le
be st</w>
di s
bu sin
s sed</w>
jo h
hav en't</w>
p lan
er e's</w>
sho w</w>
ar d</w>
he ll
p or
s y
se e
b la
ton ight</w>
ff er
prob le
d d
ma tter</w>
d ri
pre tty</w>
c tion</w>
x t</w>
su r
ca l</w>
busin ess</w>
h und
en ds</w>
ki lled</w>
b ab
v en
ne xt</w>
mi ss</w>
b ra
m any</w>
s ing</w>
de a</w>
que sti
wa r
b or
sa ys</w>
si g
f ound</w>
c ho
i dea</w>
cou ldn't</w>
qu i
ca lled</w>
si d
f ran
ta in</w>
st an
d in
mor ning</w>
stor y</w>
ea t</w>
te ly</w>
g ed</w>
b ar
y e</w>
an s</w>
with out</w>
t ch
go d
on ce</w>
sc ho
to mor
v en</w>
l in
hund red</w>
ar y</w>
s es</w>
z y</w>
v a
s ca
di ffer
da ys</w>
my self</w>
w on
d dy</w>
e i
to ge
pla y</w>
tomor row</w>
toge ther</w>
wo man</w>
par t</w>
b er
sa ying</w>
o t</w>
ru n</w>
fe w</w>
f our</w>
fa mi
st ra
ab ly</w>
ho w
wi fe</w>
s et</w>
k in</w>
hell o</w>
sin ce</w>
y et</w>
ti l</w>
ch ri
of fi
tur n</w>
m ed</w>
e st</w>
b an
stu ff</w>
star t</w>
bu r
ca se</w>
d ar
s it</w>
al ready</w>
a ge</w>
bea u
who 's</w>
d rin
c y</w>
c lea
a h</w>
it ing</w>
t y-
tu re</w>
ti ons</w>
sh u
ca p
su s</w>
o d
f un
pp ed</w>
la te</w>
a go</w>
bab y</w>
li e</w>
prob ably</w>
to ok</w>
r on
tw en
minu te</w>
fo l
ea ch</w>
t ro
ra id</w>
scho ol</w>
h i</w>
se con
m a</w>
wor d</w>
re st</w>
ki d</w>
co l
fa ce</w>
w ing</w>
al one</w>
to day</w>
fri ends</w>
g one</w>
har d</w>
to wn</w>
fi f
rea d</w>
w in
su ch</w>
po int</w>
wan ts</w>
me et</w>
cra zy</w>
or t
c en
r en
ssi on</w>
a u
g ing</w>
dea l</w>
shi p</w>
proble m</w>
je sus</w>
af raid</w>
i ce</w>
any way</w>
un til</w>
com m
d en
d ro
sh e
for get</w>
g er
da d</w>
thou s
ex c
fi gu
po li
ex act
hea r
ti on
g in
exact ly</w>
an yone</w>
kno ws</w>
fe el
g la
i mp
ar en't</w>
d a</w>
po ssi
par t
si x</w>
un i
or s</w>
loo ks</w>
b ed</w>
some body</w>
ho ld</w>
p er</w>
c ed</w>
ho pe</w>
e d
thin king</w>
l and</w>
d re
p en
ou t
k in
ou r
an i
l ed</w>
si on</w>
f re
happ y</w>
m p</w>
no r
do lla
b ring</w>
you n
st e
u p
mo ve</w>
t rou
k en</w>
t we
minu tes</w>
m rs</w>
a g
wan na</w>
o b
wor ry</w>
tru e</w>
spe ci
ma kes</w>
a ss</w>
suppo sed</w>
ser i
wh ere's</w>
und er</w>
do ctor</w>
an s
lo st</w>
act u
w er
shu t</w>
st re
thous and</w>
w ea
sh ed</w>
s it
happ en</w>
m ur
wa tch</w>
cu t</w>
yea r</w>
beau ti
p le</w>
i s
ph one</w>
pa y</w>
mar ried</w>
h or
t on</w>
ha lf</w>
b ri
b loo
wee k</w>
t in
d ra
ga ve</w>
s ent</w>
ki ds</w>
d rea
hur t</w>
al right</w>
u gh
fami ly</w>
ne e
op en</w>
b it</w>
s an
ge ts</w>
lea st</w>
wor king</w>
beauti ful</w>
ti c</w>
h er
c ro
no body</w>
m ine</w>
wi sh</w>
bo th</w>
te en</w>
joh n</w>
ja ck</w>
ha ving</w>
actu ally</w>
pro mi
l or
fuck in</w>
sho t</w>
ss ing</w>
fa r</w>
l ine</w>
li ght</w>
mo m</w>
sle ep</w>
sp ea
iti on</w>
h un
bro ther</w>
so on</w>
c ur
h it</w>
gu n</w>
d ge</w>
s po
drin k</w>
p ing</w>
ex pe
ea sy</w>
st s</w>
g ar
trou ble</w>
d r</w>
youn g</w>
ck y</w>
ne ss</w>
chan ge</w>
st ea
differ ent</w>
wal k</w>
what ever</w>
le y</w>
chan ce</w>
do or</w>
as ked</w>
th ir
a d</w>
com es</w>
a tt
g r
st ed</w>
ha te</w>
ma king</w>
t a</w>
d on</w>
t ou
la ter</w>
re la
every body</w>
ct ed</w>
won der
th ers</w>
qu ite</w>
i es</w>
s pi
ta king</w>
h and</w>
inter est
u m</w>
secon d</w>
oun ds</w>
mi lli
imp ort
w ear</w>
they 'll</w>
w ed</w>
dea th</w>
questi on</w>
hou rs</w>
cou ple</w>
poli ce</w>
s k
th s</w>
clo se</w>
c rea
m et</w>
of f
any body</w>
po s
th in</w>
it ch</w>
f lo
han d
che ck</w>
c lu
some times</w>
he 'll</w>
c ri
you rs</w>
l ou
se l
n s</w>
pi ct
any more</w>
go od
hear t</w>
import ant</w>
c ity</w>
ck ing</w>
ta in
lea r
tru th</w>
wa rd</w>
thou gh</w>
c a</w>
go es</w>
dolla rs</w>
c ent</w>
s pa
mo vi
cap tain</w>
wa ter</w>
y ed</w>
l a</w>
tr ust</w>
ou ght</w>
t ea
mer i
rea son</w>
ti ve</w>
in side</w>
d ou
b and</w>
per son</w>
fun ny</w>
te lling</w>
hon ey</w>
s co
aga in
th i
ex ce
d ding</w>
l en
again st</w>
en ing</w>
tri ed</w>
de ci
on es</w>
e yes</w>
wa r</w>
or t</w>
m b</w>
bo o
en ts</w>
la r
n er
ei ther</w>
possi ble</w>
g 's</w>
a meri
suppo se</w>
p ra
s sa
c le</w>
se cre
sen se</w>
si ck</w>
a m
s ma
bu ll
ou th</w>
st ri
di ed</w>
exc use</w>
nu mber</w>
ga me</w>
pi e
ca re
t ers</w>
f fe
d ent</w>
wa iting</w>
brea k</w>
t ly</w>
sor t</w>
d ly</w>
par ty</w>
r k</w>
gh ts</w>
bo ok</w>
hu s
ge or
ever yone</w>
y er</w>
k er</w>
me ans</w>
bu y</w>
g ran
be t</w>
u re</w>
fin i
b al
per son
l un
wh ite</w>
fi re</w>
twen ty</w>
wo men</w>
g es</w>
s end</w>
al most</w>
r en</w>
t ran
fa st</w>
it 'll</w>
bo d
chi ld
t t</w>
f ron
ans wer</w>
pi ck</w>
d on
ter ri
it ed</w>
h ind</w>
f la
lit y</w>
st er
me di
m ing</w>
te st</w>
bloo d</w>
be hind</w>
d 's</w>
po wer</w>
re cor
re por
gen er
how 's</w>
hi gh</w>
i m</w>
p id</w>
star ted</w>
milli on</w>
l er</w>
e f</w>
fa v
per fe
fa ct</w>
al ong</w>
offi ce</w>
god damn</w>
a live</w>
ll er</w>
c li
bla ck</w>
sh ouldn't</w>
p rin
bo ys</w>
pre sid
ta l</w>
bi r
mon ths</w>
coun try</w>
bu il
m on</w>
run ning</w>
comp le
st ru
ta ble</w>
h our</w>
ne i
stu pid</w>
c er</w>
i ma
e u
a li
p hi
i rs</w>
e -
per i
si mp
han ds</w>
in s</w>
tt le</w>
part ment</w>
twe en</w>
see ms</w>
d -
seri ous</w>
b ye</w>
th y</w>
li ving</w>
hi m
be tween</w>
figu re</w>
op er
geor ge</w>
su b
fi ght</w>
sho ot</w>
se em</w>
ke y</w>
l y
fron t</w>
chri st</w>
da ddy</w>
spea k</w>
la r</w>
it al</w>
hus band</w>
e ight</w>
din ner</w>
fu ll</w>
vi ce</w>
c s</w>
wa tch
feel ing</w>
t rea
al so</w>
lo gi
sca red</w>
s mo
o ver
dri ve</w>
st ing</w>
da ugh
dea r</w>
t in</w>
ou s
l ev
wr ite</w>
f ree</w>
t y
a head</w>
him self</w>
di sa
stre et</w>
en ti
sa fe</w>
promi se</w>
ck et</w>
te l</w>
fif ty</w>
ca u
pla in</w>
st ran
h -
m my</w>
ne ws</w>
a ct</w>
s ea
m it</w>
sp on
gir ls</w>
con tro
child ren</w>
col le
c ts</w>
ha ps</w>
rou ght</w>
or y</w>
clea r</w>
per haps</w>
i e</w>
fran k</w>
s k</w>
bea t</w>
sta te</w>
0 0</w>
s ci
do g</w>
lo se</w>
happen s</w>
fu n</w>
en g
ss es</w>
s ound</w>
ma l</w>
to m</w>
se ven</w>
la dy</w>
spe ct</w>
b rought</w>
bi ll</w>
bull shit</w>
wer en't</w>
vi e
cti ve</w>
g ro
t -
o l
ther 's</w>
sc re
s ounds</w>
sha ll</w>
mo ment</w>
di es</w>
men ts</w>
b all</w>
me e
li ves</w>
out side</w>
presid ent</w>
as king</w>
ou ld
b li
po or</w>
la w
st ro
sur pri
joh n
ti ll</w>
bod y's</w>
in for
ti red</w>
g y</w>
wor th</w>
ho t</w>
b lo
d ev
p ed</w>
t un
or i
chi ld</w>
pie ce</w>
j er
an ce</w>
ke e
b lu
ra y</w>
wee ks</w>
z ed</w>
a r</w>
m it
v al
ous ly</w>
v in
so lu
p sy
some where</w>
o c
tt er
di re
nee ds</w>
f le
gla d</w>
y e
e ly</w>
se x</w>
yo rk</w>
kno wn</w>
e le
d ers</w>
pla n</w>
l ying</w>
b r
g le</w>
i ></w>
ta ken</w>
f er
ho sp
sa ve</w>
s li
al s</w>
ca tion</w>
si ster</w>
co ol</w>
go in</w>
l m</w>
u su
sid es</w>
p an
lu cky</w>
b en
s qu
sig n</w>
ra di
da te</w>
rea li
pa u
movi e</w>
pu bli
re spon
co ld</w>
b b
ca lly</w>
wh e
s we
c ru
fo od</w>
it u
fa ir</w>
d ru
i se</w>
e ld</w>
lea ving</w>
mi ssion</w>
hu man</w>
thin ks</w>
g ry</w>
daugh ter</w>
coun t</w>
wor ds</w>
h ere's</w>
at ta
f ar
p ea
ma ry</w>
ra l</w>
d es</w>
sma ll</w>
pro te
dre ss</w>
gu e</w>
h h</w>
no ti
si c</w>
in ed</w>
pp ing</w>
wonder ful</w>
stra ight</w>
b itch</w>
m outh</w>
loo ked</w>
u lt</w>
mi sta
z z
thin g's</w>
pict ure</w>
mi les</w>
ma s</w>
con si
w in</w>
man 's</w>
pla ying</w>
contro l</w>
wor ked</w>
har ry</w>
v y</w>
su n
lu ck</w>
ac ci
we 'd</w>
vo l
wh er
s ou
er i
a ted</w>
wor ks</w>
bu n
to p</w>
ni e</w>
in di
tur ned</w>
t or
tt en</w>
comp any</w>
ri de</w>
pu ll</w>
r y
b le
ch ed</w>
we l
c '
st y</w>
s mar
de li
in gs</w>
ac ce
hosp ital</w>
they 've</w>
l in</w>
tion al</w>
speci al</w>
thir ty</w>
a ir</w>
tou ch</w>
n ine</w>
co ffe
ha ir</w>
expe ct</w>
ear ly</w>
p ur
gh t
ch es</w>
su pp
he 'd</w>
la w</w>
x i
w ers</w>
ra ther</w>
perfe ct</w>
s er</w>
st in
questi ons</w>
drea m</w>
t or</w>
r ying</w>
ma j
ma tion</w>
si x
or der</w>
par ents</w>
o '
ca lling</w>
e ts</w>
lear n</w>
ma ch
dd le</w>
coffe e</w>
g in</w>
exce pt</w>
wa ke</w>
ne y</w>
cer tain
st e</w>
li sh</w>
s la
mi ster</w>
lo ved</w>
s a</w>
ho tel</w>
o o
a w
t le
sel ves</w>
sc ri
fe lt</w>
ca tch</w>
ab solu
m er</w>
de ser
hi gh
f fi
twen ty-
th ro
s me
chri st
der ed</w>
n one</w>
ro ad</w>
ex plain</w>
m m</w>
fol low</w>
ck er</w>
secre t</w>
d ence</w>
at or</w>
g ge
so l
pa st</w>
l ous</w>
ki dding</w>
be sides</w>
ta kes</w>
gi ving</w>
gener al</w>
do w</w>
jo e</w>
con cer
do in</w>
wor se</w>
in ing</w>
bu ddy</w>
li es</w>
certain ly</w>
f al
th row</w>
in g
z ing</w>
f an
c' mon</w>
f er</w>
interest ed</w>
da v
a ir
ou tta</w>
so ci
in e
c ing</w>
ll a</w>
c o</w>
w n
sta irs</w>
un less</w>
dro p</w>
wr it
see ing</w>
g n
for d</w>
acci dent</w>
a a
de f
mee ting</w>
e mp
g ger</w>
dar k</w>
f all</w>
o thers</w>
je ct</w>
how 'd</w>
af ter
hand le</w>
won der</w>
plan e</w>
ban k</w>
stan ding</w>
y '
go tten</w>
be come</w>
ar my</w>
ti e</w>
repor t</w>
h a</w>
clea n</w>
est er
s har
absolu tely</w>
han g</w>
y ester
fo o
b ru
maj or</w>
clo ck</w>
tt e</w>
c le
we i
fa ult</w>
fi eld</w>
in vol
v ate</w>
se ven
lor d</w>
t wi
par ti
simp le</w>
in ve
l lo
y in</w>
sto re</w>
pro fe
ma d</w>
tal ked</w>
o w
t re
gi ven</w>
ct ing</w>
mu sic</w>
infor mation</w>
g ri
fu lly</w>
co ps</w>
as sho
fi ed</w>
e h</w>
s wear</w>
ta lly</w>
me an
ear th</w>
re ly</w>
yester day</w>
g ers</w>
ro se</w>
ho l
u h-
pa per</w>
dan ce</w>
what 'd</w>
sa m</w>
pa id</w>
on e's</w>
cau ght</w>
wor ried</w>
th es</w>
dou b
pa ti
mi cha
en jo
bor n</w>
swe et</w>
fe et</w>
ba star
sh ing</w>
s ear
go ver
gen tle
cla ss</w>
b en</w>
co p</w>
ex peri
b s</w>
f it</w>
d or
terri ble</w>
co ver</w>
a partment</w>
mo ving</w>
g un
ameri can</w>
se ll</w>
char lie</w>
twe l
sti c</w>
me mor
n ear</w>
bo at</w>
k a
ba g</w>
ar t</w>
sti ck</w>
an e</w>
she 'll</w>
bo b</w>
gr ound</w>
g an</w>
com pu
mar ry</w>
co ver
chan ged</w>
a ting</w>
bo ard</w>
gran d
na tu
clo thes</w>
p es</w>
fol lo
h y
b on
v an
pra cti
can not</w>
dav id</w>
s ki
j im
stran ge</w>
v in</w>
m c
fini sh</w>
ba r</w>
mur der</w>
smar t</w>
ch ing</w>
con ne
ri ch</w>
st r
bo ss</w>
pau l</w>
ad mi
person al</w>
wal ter</w>
happen ing</w>
de te
p ho
me ant</w>
no thin</w>
m me</w>
u l
mista ke</w>
care ful</w>
p y</w>
k en
ga s</w>
qu it</w>
fuck ed</w>
cho ice</w>
figu red</w>
any where</w>
st em</w>
ne w
b low</w>
ei gh
e m
re ci
ha sn't</w>
d run
ran ce</w>
ssa ge</w>
p ers</w>
er 's</w>
cer tain</w>
buil ding</w>
blu e</w>
differ ence</w>
su per
mon th</w>
wi lli
gir l
re spect</w>
pri vate</w>
lon ger</w>
sy stem</w>
bu cks</w>
f ra
ur es</w>
ro ss</w>
li st</w>
i a</w>
ba ck
a ma
t an
e ye</w>
b ly</w>
sa ke</w>
s wee
recor d</w>
in v
kin da</w>
su it</w>
bu sy</w>
tt ers</w>
se cur
g ine</w>
no on</w>
d un
t v</w>
de stro
proble ms</w>
hur ry</w>
for m</w>
fi sh</w>
bro ke</w>
s cu
ke pt</w>
e s
sit u
ima gine</w>
ve ly</w>
fi gh
ag ent</w>
u e</w>
v ous</w>
te mp
stea d</w>
p lo
watch ing</w>
si ve</w>
fu ture</w>
lun ch</w>
ear ing</w>
li ked</w>
ki lling</w>
fif teen</w>
di ck</w>
dan ger
da m</w>
pe ter</w>
fav or</w>
li ar</w>
comple tely</w>
hon est</w>
ber t</w>
vie w</w>
tri p</w>
sp end</w>
sle e
ev ening</w>
i -
ni ck</w>
n ment</w>
mi ddle</w>
dar ling</w>
hi story</w>
respon si
beli ev
qui et</w>
hon or</w>
good bye</w>
tran s
ch ea
pre ss</w>
p in
fre e
en s</w>
ca lls</w>
twel ve</w>
ma ma</w>
cour t</w>
sa n</w>
pre sent</w>
sit ting</w>
pos ition</w>
micha el</w>
b by</w>
a po
app reci
interest ing</w>
for tun
ob vi
o -
g an
ma x</w>
invol ved</w>
ci r
app ro
pp er</w>
b out</w>
fin ally</w>
su dd
mm er</w>
t ough</w>
d ying</w>
a tely</w>
pa ss</w>
flo or</w>
ca sh</w>
wel come</w>
un cle</w>
f ly</w>
chi ef</w>
in su
con tin
wei rd</w>
drun k</w>
ct ly</w>
i g
rela x</w>
jim my</w>
ce ss</w>
b rin
wi se</w>
e g
att en
1 9
they 'd</w>
se x
j un
p l
ssi on
nei gh
ki ss</w>
con ta
ar ti
mo ved</w>
be gin
uh- huh</w>
ha l
bo y
pa in</w>
in stead</w>
h en
wo w</w>
off er</w>
k y</w>
boo ks</w>
le tter</w>
su e</w>
lo ts</w>
bra in</w>
situ ation</w>
ser vice</w>
qu ar
sto pped</w>
pi cked</w>
dis cu
up set</w>
eng lish</w>
en ter
st ers</w>
ro b
nee ded</w>
ja il</w>
iti ve</w>
ex i
sc en
spa ce</w>
gr and</w>
pro du
il s</w>
fini shed</w>
disa pp
di r
comp li
ti es</w>
wher e
s na
l low</w>
b ought</w>
radi o</w>
fo ol</w>
secur ity</w>
li kes</w>
d ition</w>
clu b</w>
ca rd</w>
brea k
ki ller</w>
ja mes</w>
ner vous</w>
ch ur
offi cer</w>
j im</w>
o' clock</w>
mach ine</w>
do wn
z en</w>
win dow</w>
tea m</w>
ra n</w>
la u
f -
danger ous</w>
th re
me ssage</w>
d '
bo x</w>
si l
reali ze</w>
co lon
after noon</w>
tra v
cti ons</w>
bo ther</w>
t ar
some thin</w>
s in</w>
li ved</w>
ac ross</w>
s wi
ro te</w>
lo ck</w>
tt in</w>
in te
f ear</w>
a le
k o
car ry</w>
du de</w>
assho le</w>
in t
ce ss
ta tion</w>
tha t
sta tion</w>
po lit
fi x</w>
w rote</w>
me 's</w>
ev il</w>
o we</w>
s ch
ga r</w>
vo ice</w>
m 's</w>
thi rd</w>
min i
to tally</w>
for got</w>
publi c</w>
f y</w>
c y
na l</w>
john ny</w>
bastar d</w>
d en</w>
a -
la y</w>
jo in</w>
ta pe</w>
s low</w>
nei ther</w>
di v
sh ort</w>
po se</w>
z a
y le</w>
w ould
f ren
de fin
bi lity</w>
i c</w>
we st</w>
ru ssi
plea sure</w>
sear ch</w>
mm m</w>
for ce</w>
th rea
pro ve</w>
er ed</w>
do m</w>
ch er</w>
mu st
g or
doub t</w>
wo od</w>
for give</w>
sho o
lo ves</w>
i di
cor re
r es</w>
law yer</w>
sta r</w>
ph y
mi ssed</w>
ev i
com for
pro gra
gu ar
mb ers</w>
mar k</w>
de ep</w>
ci al</w>
ma te</w>
g ni
fu r
deci ded</w>
ther e
st ep</w>
qui ck</w>
el s</w>
pict ures</w>
str ong</w>
ss y</w>
ma '
ja ke</w>
ed die</w>
na med</w>
ga l</w>
s is</w>
vi r
th or
re turn</w>
gi e</w>
re li
mi ssing</w>
den ti
ho od</w>
ce i
ma' am</w>
wea p
ri es</w>
colle ge</w>
l le</w>
g -
dri ving</w>
bun ch</w>
fi c</w>
ea rs</w>
sta ying</w>
hun gry</w>
rea ch</w>
pri son</w>
n ur
d ur
en e
chur ch</w>
ja ck
sa l</w>
har dly</w>
as su
appreci ate</w>
gen cy</w>
cou ld
christ mas</w>
k ar
x ed</w>
th ea
char ge</w>
w earing</w>
ha dn't</w>
st one</w>
s m</w>
bu s</w>
s --
pa l</w>
p un
g rou
chi ck
what 're</w>
go ld</w>
s lo
s ons</w>
pri ce</w>
ty pe</w>
ci ous</w>
an ge
sti ga
ga re
bir th
atta ck</w>
su gge
m ous</w>
pea ce</w>
k it
sh es</w>
re co
gi ves</w>
tra in</w>
rea ding</w>
pu tting</w>
wee k
usu ally</w>
iti es</w>
ca lm</w>
secon ds</w>
s wa
pre s
f our
lea d</w>
it h</w>
gover nment</w>
cu te</w>
par k</w>
v an</w>
nu ts</w>
ki e</w>
compu ter</w>
sh ould
con tra
inve stiga
im pre
</ i></w>
< i></w>
f at</w>
stan ce</w>
li fe
in ten
surpri se</w>
sho p</w>
no r</w>
sa ved</w>
l it</w>
is land</w>
co st</w>
g ged</w>
ba th
ca te</w>
a re
a tions</w>
nor mal</w>
st on</w>
li eu
g row</w>
y' know</w>
promi sed</w>
ci de</w>
aw ful</w>
tri ck</w>
ma ster</w>
list ening</w>
lieu ten
ho le</w>
sme ll</w>
jo ke</w>
gh ten
no se</w>
def en
t each</w>
fi le</w>
un ity</w>
gun s</w>
enti re</w>
de e
por t</w>
mo ther
phy si
e mb
wa re</w>
fren ch</w>
b it
p tion</w>
le s
l o</w>
c in
l le
s mi
ca ted</w>
sh eri
e sca
na ture</w>
dete ctive</w>
ar ran
al lo
f li
ea si
bla me</w>
o s</w>
na h</w>
mar ri
ll in</w>
div or
movi es</w>
fi red</w>
s ar
pa pers</w>
ab o
whe ther</w>
tru ck</w>
fol ks</w>
be er</w>
speci ally</w>
ro ck</w>
n ea
cri me</w>
di ffi
wr iting</w>
r ound</w>
j an
con ver
birth day</w>
lo gy</w>
ca li
ameri ca</w>
drea ms</w>
j ea
diffi cu
twi ce</w>
sto od</w>
cu sto
n on
inter est</w>
who se</w>
sig ned</w>
ri ous</w>
atten tion</w>
t it
ho ly</w>
usu al</w>
stu ck</w>
lieuten ant</w>
e th</w>
bri dge</w>
bo w
0 00</w>
bo mb</w>
al l
star ting</w>
s -
la ugh
b i</w>
k ni
wa ll</w>
su c
ne ck</w>
hi de</w>
comm uni
sur vi
cle an
re gu
g ging</w>
de partment</w>
sha re</w>
apo logi
wal king</w>
na mes</w>
ct ors</w>
as le
al ity</w>
po p</w>
man a
ri di
r o</w>
evi dence</w>
rela tion
part ner</w>
gu y's</w>
fi lm</w>
enjo y</w>
p h</w>
te le
gu ard</w>
ci gare
ab i
we dding</w>
recor ds</w>
sou l</w>
psy cho
p len
begin ning</w>
u al</w>
gi c</w>
e specially</w>
s outh</w>
cover ed</w>
su n</w>
r it
dolla r</w>
un t</w>
in de
il ed</w>
h it
fi l
-- i</w>
prote ct</w>
noti ce</w>
ni ght
f rea
b l
ad mit</w>
si lly</w>
tal kin</w>
or ders</w>
ca t</w>
ca mer
surpri sed</w>
fa ther's</w>
en tly</w>
yo n
u sing</w>
vi sit</w>
ma in</w>
in no
hol ding</w>
for ever</w>
comm it
sin gle</w>
ho ll
n ers</w>
me ss</w>
mi ke</w>
g ly</w>
figh ting</w>
fav or
dur ing</w>
sci ence</w>
pa in
im possible</w>
en ed</w>
clo sed</w>
gentle men</w>
bi lly</w>
sc ra
plen ty</w>
de p
d it</w>
asle ep</w>
girl friend</w>
where 'd</w>
m pa
gla ss</w>
tr a</w>
par is</w>
m pi
b re
memor y</w>
m o</w>
ex a
ci vi
hor se</w>
fe llow</w>
wa sh
ridi cu
experi ence</w>
gu il
cra p</w>
smo ke</w>
plan et</w>
li ed</w>
god dam
par don</w>
corre ct</w>
mo on</w>
du mb</w>
tur ns</w>
p rou
la tion</w>
z z</w>
sp ent</w>
sk y</w>
san e</w>
neigh bor
gre en</w>
an gry</w>
parti cu
ele ct
c he</w>
ani mal</w>
y ers</w>
wonder ing</w>
lou is</w>
fri en
di a
she 'd</w>
per cent</w>
ni a</w>
ar ra
g on</w>
act ing</w>
k a</w>
- up</w>
w on</w>
reco gni
pati ent</w>
th u
e f
cri min
idi ot</w>
oun ded</w>
mp ed</w>
marri age</w>
ad dress</w>
co o
co de</w>
cen tra
bro ken</w>
si ons</w>
ex per
char les</w>
in i
grou p</w>
ta il</w>
on er</w>
i ld</w>
er ing</w>
spi r
plan s</w>
ki d
te lls</w>
our selves</w>
kno ck</w>
fo ot</w>
do c</w>
be d
ar m</w>
or din
y ah</w>
wal ked</w>
ti ght</w>
ta n</w>
men tion</w>
bro thers</w>
fuck er</w>
gi mme</w>
natu ral</w>
slee ping</w>
boy friend</w>
b in
kee ps</w>
ac count</w>
te e</w>
te ch
fe der
ex plo
com man
y o</w>
h h
mo ther's</w>
mar k
bath room</w>
wit ch</w>
ti s
lin es</w>
ke ys</w>
i ll
gra ce</w>
ha m</w>
god 's</w>
consi der</w>
ridicu lous</w>
fe ll</w>
cha ra
ar ri
o se</w>
r ent</w>
m oun
ch u
to mmy</w>
mu l
lev el</w>
la n</w>
are a</w>
w ind</w>
stu dy</w>
ra te</w>
see med</w>
prou d</w>
dru gs</w>
to o
ba se
co a
ty- five</w>
su mmer</w>
lo vely</w>
le gal</w>
colon el</w>
re y</w>
t ary</w>
sto le</w>
c l
ama zing</w>
ag ree</w>
up stairs</w>
seri ously</w>
or g
it ely</w>
difficu lt</w>
lo cked</w>
lear ned</w>
hea l
feel s</w>
fan ta
re fu
no te</w>
wh en
kee ping</w>
ge e</w>
n t</w>
hea ven</w>
acce pt</w>
uni ver
ta ge</w>
si d</w>
jer ry</w>
t ine</w>
pro per
on ed</w>
gre e
ch in
a ri
v al</w>
sc rea
ju mp</w>
en ly</w>
defin itely</w>
bur n</w>
with in</w>
ri ver</w>
relation ship</w>
pla yed</w>
pu lled</w>
no body's</w>
ad vice</w>
sol di
polit i
bea ch</w>
ser ve</w>
ru les</w>
e lo
att ra
pla ces</w>
every thing's</w>
ju dge</w>
her self</w>
i ll</w>
con fi
bu ild</w>
st itu
on y</w>
na tional</w>
ea ting</w>
break fast</w>
wi l
gh o
e mer
f lu
stor ies</w>
feel ings</w>
vi cti
s per
pro ce
la s</w>
ri d</w>
le e</w>
of ten</w>
da ma
ro ll</w>
scen e</w>
pl us</w>
con fu
bi rd</w>
z e
po in
mi l
ea se</w>
di ck
cir cu
be th</w>
war ds</w>
ne l</w>
st le</w>
w y
obvi ously</w>
je ff
l 's</w>
st ant</w>
ge ttin</w>
ex pen
te eth</w>
op ini
m -
nor th</w>
j en
favor ite</w>
cro w
c on</w>
spe e
lau gh</w>
d y
wor st</w>
wi ld</w>
t ree</w>
stea l</w>
mi d
in es</w>
car es</w>
c us</w>
cali for
sa d</w>
pho to
fa i
chara ct
sp ort</w>
o pp
conta ct</w>
sp en
na me's</w>
me xi
c up</w>
lo ad</w>
wash ing
re cei
fran k
buil t</w>
pa ying</w>
du e</w>
comfor table</w>
sheri ff</w>
sc he
comm and</w>
bo bby</w>
dir ty</w>
sa tion</w>
kno w
cro ss</w>
se a</w>
org ani
itu de</w>
for ty</w>
cre di
comple te</w>
ca mp</w>
ta ste</w>
r or</w>
st ly</w>
ssi ve</w>
sho es</w>
lev i
z er
y d</w>
ro pe</w>
kno wing</w>
ga mes</w>
califor nia</w>
wit ness</w>
y a
u ght</w>
l en</w>
j as
e z</w>
si e</w>
le 's</w>
ph y</w>
exce ll
ck ey</w>
i dea
as si
par a
op s</w>
ma le</w>
de l</w>
b lan
ac tion</w>
ju sti
tra ck</w>
o ther
la tions</w>
washing ton</w>
spo t</w>
new spa
n es</w>
don t</w>
on to</w>
wh y
some how</w>
j our
hen ry</w>
fa ith</w>
n ine
f bi</w>
e mo
ar rest</w>
z o
wa ste</w>
si ze</w>
sho wed</w>
ri char
inno cent</w>
in ci
emb arra
deci de</w>
e li
e ffe
bir ds</w>
an ti
w ine</w>
run s</w>
ri sk</w>
in sane</w>
a part</w>
lou d</w>
g ent</w>
e ss
co ck
sp lit</w>
mean ing</w>
lo sing</w>
an dy</w>
g g
ki ck</w>
wi lling</w>
hi ding</w>
ear l</w>
bal ls</w>
sa tis
p lu
te levi
par ed</w>
le g</w>
ha ll</w>
be tty</w>
b or</w>
tt es</w>
t end</w>
s ong</w>
s mit
con fe
sh it
hea vy</w>
hea ds</w>
e la
v a</w>
trea t</w>
su i
psy chi
bl ind</w>
admi ral</w>
s our
week end</w>
gu i
th ear
st ur
ss or</w>
co py</w>
so oner</w>
jeff rey</w>
mp s</w>
m in</w>
san d
medi cal</w>
k ers</w>
inte lli
wa it
sudd enly</w>
progra m</w>
pre sen
pa y
im medi
for ward</w>
apologi ze</w>
swee thear
sta tes</w>
po wer
la tely</w>
drin king</w>
da me</w>
ck ets</w>
be gin</w>
an o
tri al</w>
ma je
in si
ra ise</w>
ne 's</w>
in -
grea test</w>
care er</w>
sa il
hor ri
ga z
discu ss</w>
s day</w>
mur dered</w>
dan ger</w>
concer ned</w>
televi sion</w>
ri ck</w>
dro pped</w>
cre w</w>
au to
an na</w>
t ent</w>
on i
a w</w>
ta ught</w>
responsi ble</w>
po st</w>
ma ri
m per
tro du
sweethear t</w>
in trodu
fi ll</w>
ro man
emp lo
who a</w>
tra ining</w>
loo se</w>
mur der
li ghts</w>
yon d</w>
wi re</w>
smit h</w>
e se</w>
be yond</w>
tt on</w>
s kin</w>
po ol</w>
e t
dun no</w>
ne cess
ma g
le gs</w>
ti cket</w>
gi ft</w>
follo wing</w>
fa mous</w>
cre dit</w>
an ne</w>
ale x</w>
pa ck</w>
in clu
z i
wo o
te sti
so ld</w>
s en</w>
n in
possi bly</w>
er y</w>
comm on</w>
c les</w>
we ll
mon ster</w>
dan i
pan ts</w>
bru ce</w>
su l
s ke
opini on</w>
emp ty</w>
do gs</w>
the m
on e-
han ging</w>
je ff</w>
bo t
ter min
se y</w>
other wise</w>
ho me
d iti
sh el
cor ner</w>
loo kin</w>
i re</w>
e ty</w>
ad a</w>
in credi
cra w
sta te
fri ghten
se l</w>
s eat</w>
off en
chick en</w>
be g</w>
profe ssor</w>
po sed</w>
or 's</w>
in stru
en ga
destro y</w>
con vin
su spect</w>
sa l
nur se</w>
m or</w>
le on</w>
ene my</w>
ch en</w>
cen tu
sex ual</w>
noti ced</w>
ma l
con ven
pro of</w>
per for
ex tra</w>
war m</w>
sa tur
hel ped</w>
cou ra
shoo ting</w>
re p
he ld</w>
d i</w>
simp ly</w>
li cen
llo yd</w>
her o</w>
z ation</w>
lo s</w>
re gi
qu e</w>
necess ary</w>
chea p</w>
s ity</w>
hi red</w>
them selves</w>
lon ely</w>
lar ge</w>
f light</w>
tw o-
g th</w>
dou ble</w>
bu d</w>
wa sh</w>
star ts</w>
re que
qui ck
profe ssion
p al
mi ser
mi lit
dru g</w>
, 000</w>
oper ation</w>
ea st</w>
con dition</w>
s no
da ta</w>
com in</w>
would 've</w>
w re
brin ging</w>
tur ning</w>
ter i
ju li
gra tu
that 'll</w>
re -
la id</w>
exc ited</w>
ru le</w>
ou rs</w>
opp ort
col or</w>
bi gger</w>
pos se
ha ro
le g
af ford</w>
vi de
sh ir
logi cal</w>
d ry</w>
yea r
satur day</w>
or ed</w>
n ar
ma gaz
de sk</w>
che cked</w>
sui cide</w>
du ty</w>
te en
sen ator</w>
mi c</w>
expe cted</w>
di g</w>
cu rious</w>
ba se</w>
ra i
dd en</w>
3 0</w>
it self</w>
ca l
emer gency</w>
nu mbers</w>
dor o
de l
b er</w>
se es</w>
justi ce</w>
t z</w>
ou gh
h mm</w>
ea red</w>
de scri
c ry</w>
fe ed</w>
ct ory</w>
ca rs</w>
ca b</w>
up on</w>
deser t</w>
bea r</w>
p in</w>
deci sion</w>
cu re</w>
cha ir</w>
sub ject</w>
l or</w>
f red</w>
da ve</w>
se ttle</w>
mo stly</w>
a ye</w>
mar ty</w>
insu rance</w>
en ces</w>
se ver
richar d</w>
hea ring</w>
vi ol
pu sh</w>
mon d</w>
b les</w>
ma gic</w>
gra b</w>
bo ther
att or
tru ly</w>
no pe</w>
la dies</w>
could 've</w>
p ha
comman der</w>
bla ck
be lon
tho mas</w>
sa fe
pa ssed</w>
mp ing</w>
con gratu
t is</w>
nor man</w>
ma tters</w>
good -
e qui
y al</w>
scre w</w>
sci enti
di a</w>
deser ve</w>
ba t</w>
writ er</w>
tho u</w>
maje sty</w>
fami liar</w>
dre ssed</w>
we ight</w>
ste in</w>
mp le</w>
el even</w>
al y
ve gas</w>
se tt
ne u
horri ble</w>
camer a</w>
ge ant</w>
g al
fe lla</w>
e ll
an o</w>
ad van
abi lity</w>
u gly</w>
pa ge</w>
der ing</w>
car l</w>
bo dies</w>
que en</w>
idea s</w>
spea king</w>
on 's</w>
ol der</w>
lan gu
conver sation</w>
wea ther</w>
ig no
un k</w>
sta ge</w>
si ght</w>
hea d
cra sh</w>
clo ser</w>
beau ty</w>
ar ms</w>
w -
pre gn
my ster
he h</w>
haro ld</w>
guil ty</w>
ani ma
de st</w>
c r
bro wn</w>
air port</w>
spo ke</w>
recogni ze</w>
person ally</w>
le tters</w>
every where</w>
brea th</w>
wa y
ve -
si re</w>
se ly</w>
c rying</w>
b ran
yo ne's</w>
spe ed</w>
en gin
vi o
sk i</w>
kit chen</w>
k ne
j uni
cla u
la ke</w>
ce le
y ard</w>
st ren
perfe ctly</w>
believ ed</w>
ro b</w>
esca pe</w>
writ ten</w>
wa ll
fi re
dam ned</w>
co at</w>
ca tions</w>
b a</w>
ans wers</w>
sco tt</w>
r a</w>
practi ce</w>
o il</w>
do ctors</w>
why 'd</w>
mar tin</w>
ju d
ho ping</w>
h m</w>
fer ence</w>
some body's</w>
no n</w>
men tion
h hh</w>
ac cor
thre w</w>
fre sh</w>
bu zz</w>
weap ons</w>
st al
it 'd</w>
ge ment</w>
e ding</w>
do ors</w>
be long</w>
be ha
sho ws</w>
quick ly</w>
la ted</w>
car ds</w>
watch ed</w>
s care</w>
men tal</w>
gu s</w>
far m</w>
co le</w>
proper ty</w>
li ke
inde ed</w>
eng land</w>
di stur
ch o</w>
b right</w>
an n</w>
you re</w>
man i
li er</w>
bo ttle</w>
a tes</w>
p a</w>
su gar</w>
sp or
p ment</w>
la d</w>
gre ss</w>
ga te</w>
ver s</w>
ori gin
ok ed</w>
m ou
le ts</w>
it e
it ali
gge st</w>
f ru
car rying</w>
bi ggest</w>
an a</w>
ter 's</w>
squ are</w>
ra in</w>
pie ces</w>
pi ssed</w>
i ces</w>
disa ppo
civi li
ble w</w>
star s</w>
p ounds</w>
licen se</w>
jas on</w>
crimin al</w>
ra lly</w>
vi lla
pa ir</w>
mi ra
fa ster</w>
trav el</w>
sh er
mon y</w>
mo mmy</w>
thir ty-
some time</w>
lon don</w>
dama ge</w>
app ar
m ers</w>
ju ry</w>
her o
an nie</w>
allo wed</w>
va cation</w>
ru s</w>
good night</w>
ev en
contra ct</w>
be came</w>
a ware</w>
the tic</w>
terri fic</w>
m '
le dge</w>
hea t</w>
gran t</w>
fur ther</w>
di e
ha u
s nea
n in</w>
ha m
can s</w>
bu ried</w>
bra ins</w>
u se
immedi ately</w>
bot tom</w>
anima ls</w>
who ever</w>
spee ch</w>
no where</w>
ha t</w>
ta ils</w>
ma dame</w>
lo cal</w>
doro thy</w>
charact er</w>
a while</w>
th ur
supp ort</w>
mi s
hun t</w>
en er
de b
to tal</w>
the ory</w>
son 's</w>
gre ed</w>
ex e
easi er</w>
re pu
ma in
excell ent</w>
b ite</w>
dra w</w>
sun day</w>
russi an</w>
plan ning</w>
lea ds</w>
hel ping</w>
vi lle</w>
v ity</w>
te a</w>
re ver
profession al</w>
po pu
op ened</w>
li gh
lea ves</w>
e k</w>
li d</w>
every body's</w>
cou sin</w>
bra d</w>
y ep</w>
who m</w>
stren gth</w>
pro vi
min ds</w>
dan ny</w>
pur pose</w>
o a
a unt</w>
s lu
ma il</w>
juni or</w>
foo t
ran t</w>
must 've</w>
int ment</w>
gu est</w>
dev il</w>
a ch</w>
v ul
regu lar</w>
f lying</w>
contin u
as sa
' n</w>
r is</w>
opport unity</w>
c ran
an d-
sudd en</w>
it or</w>
s well</w>
photo gra
p -
ac cu
zer o</w>
tech ni
stor m</w>
st in</w>
ta x
a vo
tur es</w>
tea cher</w>
sho wer</w>
po i
on al</w>
na w</w>
bu sted</w>
sto ck</w>
sta yed</w>
shi ps</w>
kni fe</w>
cli ent</w>
ce ll</w>
ro bert</w>
lu ke</w>
co w
s word</w>
lit ies</w>
for t</w>
ci an</w>
v ation</w>
mexi co</w>
cho ose</w>
bloo dy</w>
bi e</w>
a ppo
fle et</w>
ac ti
un ited</w>
re ss</w>
ni ghts</w>
jea lous</w>
cen ter</w>
brea king</w>
re mind</w>
mea t</w>
ma x
ja cket</w>
com pe
stan d
roo ms</w>
pre fer</w>
mm a</w>
k u
john son</w>
dro ve</w>
da l</w>
c iti
bor ing</w>
sc o</w>
prin cess</w>
al low</w>
fortun e</w>
dev elo
contin ue</w>
al ter
some place</w>
pres sure</w>
neighbor hood</w>
mm ing</w>
fri day</w>
ct ure</w>
c el
ba be</w>
attor ney</w>
when ever</w>
v el
ela ine</w>
ar gu
ser geant</w>
pre pared</w>
mana ger</w>
follo wed</w>
twenty- five</w>
scri pt</w>
mark et</w>
is sue</w>
hund re
du mp</w>
a 's</w>
re ck
pi g</w>
jo ey</w>
gentle man</w>
fin ger</w>
secre tary</w>
langu age</w>
holl y
expe cting</w>
tra de</w>
thro at</w>
smo king</w>
re lea
r ence</w>
i denti
feder al</w>
assu me</w>
ar ds</w>
vi sion</w>
sp are</w>
re search</w>
pp y</w>
particu lar</w>
divor ce</w>
beha vi
kin s</w>
g ence</w>
ima gin
holly wood</w>
congratu lations</w>
rea sons</w>
re gre
pi cking</w>
li ft</w>
la ce</w>
flo wers</w>
fi les</w>
br iti
ta y
stri ke</w>
fir m</w>
ea n</w>
centu ry</w>
sel f-
mit che
frighten ed</w>
din gs</w>
app ea
-- and</w>
ther a
sha pe</w>
natu rally</w>
mention ed</w>
ma u
k 's</w>
h in
ex tra
ri ce</w>
p it
er al</w>
dep ends</w>
briti sh</w>
ho li
i i</w>
hal f-
en a</w>
abo ve</w>
w en
tin gs</w>
son ny</w>
eigh teen</w>
ca b
mi ckey</w>
hon est
che st</w>
rin gs</w>
like ly</w>
indi an</w>
g en</w>
under stood</w>
sta ur
re staur
po cket</w>
le mme</w>
lar ry</w>
k ness</w>
ho ok</w>
pregn ant</w>
pre tend</w>
pla yer</w>
on ing</w>
k ane</w>
clea r
b ones</w>
ad ed</w>
su rely</w>
spir it</w>
pos itive</w>
f lor
chan ges</w>
-- you</w>
soci al</w>
shar k</w>
milit ary</w>
down stairs</w>
p ani
oc cu
n et</w>
six ty</w>
pu l
obvi ous</w>
ne ga
e du
au thor
sha me</w>
ser ved</w>
mm ed</w>
ma ch</w>
accor ding</w>
ac coun
a ds</w>
so ft</w>
sig nal</w>
n -
incredi ble</w>
destro yed</w>
b oun
ar re
ti p</w>
st ron
jo int</w>
in du
do o
dea ling</w>
de sper
bu ying</w>
weap on</w>
ordin ary</w>
i ds</w>
dre w</w>
do zen</w>
ba y</w>
5 0</w>
te ful</w>
power ful</w>
hi l
un fortun
pa tter
i an</w>
gen i
dire ctor</w>
ster n</w>
cu l
mother fucker</w>
kid na
ha ted</w>
gar age</w>
enter pri
sy ste
mb le</w>
ma p</w>
gar den</w>
a lar
ti cs</w>
re si
magaz ine</w>
d or</w>
a ld</w>
tay lor</w>
lou sy</w>
ll o</w>
le tting</w>
ga in</w>
est s</w>
dri ver</w>
ca ke</w>
appar ently</w>
ma c</w>
fin al</w>
de mo
bu st</w>
tal ent</w>
responsi bility</w>
in spe
fi xed</w>
ci a</w>
ener gy</w>
ck ers</w>
can cer</w>
ba th</w>
willi am</w>
some thing's</w>
si m
il ing</w>
e y
su san</w>
st eve</w>
ro y</w>
ma re</w>
con centra
ch a</w>
can t</w>
vide o</w>
stre ets</w>
sle pt</w>
le o</w>
la b</w>
cigare ttes</w>
c lin
ba ge</w>
b lon
a dam</w>
v it
v el</w>
st af
mil k</w>
mb s</w>
ken ne
va mpi
tal ks</w>
st ry</w>
se qu
ma tch</w>
g ru
disapp eared</w>
cor por
we ver</w>
stru ction</w>
st yle</w>
physi cal</w>
j ane</w>
ho wever</w>
hi ll</w>
con sci
te x
mo od</w>
in ven
ever yone's</w>
dani el</w>
1 1</w>
sto mach</w>
smi le</w>
se par
sa u
ner ve</w>
mi r
gra teful</w>
exe cu
che l</w>
c ers</w>
y el
thou ghts</w>
of -
go ti
for gotten</w>
exi st</w>
w 's</w>
ta pes</w>
su spi
pro ject</w>
man s</w>
en cy</w>
defen se</w>
bur ned</w>
bu m</w>
att itude</w>
ans wer
wea k</w>
w et</w>
tr yin</w>
survi ve</w>
re call</w>
prin ts</w>
n it</w>
ine se</w>
fal ling</w>
concer n</w>
ca st</w>
a wake</w>
ro ger</w>
pro per</w>
pla ys</w>
oc ca
g gie</w>
d' you</w>
blo ck</w>
ti ves</w>
tch ed</w>
sp ring</w>
oun t</w>
mo ves</w>
mm mm
m un
ha n</w>
guar an
com pla
bed room</w>
vi rus</w>
tri es</w>
th 's</w>
some one's</w>
mi ssi
de pre
ck 's</w>
ad vi
spo ck</w>
ri s
reme mb
psychi a
mi gh
k -
eu rope</w>
ben ja
v is</w>
sho wing</w>
hi re</w>
co ok</w>
c ry
aa aa
p he
ma c
dan cing</w>
char ming</w>
ti ed</w>
su cker</w>
pe te</w>
or dered</w>
o p</w>
crea m</w>
au di
as soci
ar med</w>
sh er</w>
mid night</w>
ear lier</w>
bur ning</w>
st rea
soci ety</w>
si ble</w>
op ening</w>
mi es</w>
k ay</w>
g lor
ff y</w>
elect ri
co lla
tra p</w>
to ward</w>
mitche ll</w>
frea k</w>
cl ever</w>
ch inese</w>
sche du
s ant</w>
ru in</w>
ob je
no ise</w>
ma tic</w>
in ess</w>
gra de</w>
ce y</w>
b ></w>
wo lf</w>
willi a
willia ms</w>
w ra
ra ce</w>
de stin
ci ent</w>
ca tch
c ta
stre ss</w>
sen ding</w>
s se</w>
wo re</w>
vi ctor</w>
tr unk</w>
mon t</w>
mon day</w>
bri lli
acce ss</w>
shir t</w>
sh or
practi cally</w>
newspa per</w>
gra du
cigare tte</w>
ban ks</w>
z a</w>
tou ched</w>
threa ten
se lling</w>
s witch</w>
rea son
pu re</w>
ma sk</w>
ly n</w>
jo bs</w>
ha w
free dom</w>
fin ding</w>
do ws</w>
che mi
should 've</w>
na tion</w>
ll en
gor don</w>
fa ke</w>
chi ca
al ty</w>
wo ke</w>
sugge st</w>
mar go</w>
lin da</w>
l ds</w>
ha tes</w>
g a</w>
eg gs</w>
con du
par ts</w>
da n</w>
bu d
am ong</w>
a greed</w>
staf f</w>
sen s
sa t</w>
s car
ma yo
ma teri
investiga tion</w>
hil dy</w>
fin ds</w>
cla rence</w>
wi fe
wa ited</w>
thre e-
sh ou
sever al</w>
nega tive</w>
mo tion</w>
ll ers</w>
d al
coun ty</w>
ton gue</w>
ti ckets</w>
ran ge</w>
ll u
inv ited</w>
h o</w>
fin ger
benja min</w>
te llin</w>
ry an</w>
po t</w>
ne goti
el ev
dis ease</w>
1 0</w>
ter r
ri ding</w>
reli gi
plea sed</w>
hor ses</w>
cra ck</w>
ton y</w>
some day</w>
psychia tri
me l
la ur
crea ture</w>
chan ces</w>
cen ts</w>
v ent</w>
tu ally</w>
ro of</w>
n early</w>
jer k</w>
e qu
clear ly</w>
ce ment</w>
bb er</w>
p ted</w>
na ked</w>
hu ge</w>
g ne</w>
fun eral</w>
for ty-
fi lled</w>
down town</w>
brea the</w>
tain s</w>
soldi er</w>
hou se
for ced</w>
e pi
an ds</w>
tt i</w>
thin kin</w>
state ment</w>
pi ss</w>
i- i</w>
hur ts</w>
eu r</w>
e e
c qu
bo a
be tra
su ck</w>
ll 's</w>
j ones</w>
su ffer
s sin
prin ci
wo od
wa ter
sour ce</w>
ly n
heal th</w>
gre en
for ei
d are</w>
cla rk</w>
cele bra
bu ck</w>
act or</w>
ra chel</w>
dire ct</w>
at temp
way ne</w>
ri ghts</w>
mu se
ev ent</w>
din er</w>
crea ted</w>
be ll</w>
arre sted</w>
chica go</w>
care fully</w>
ar ch
win gs</w>
u t</w>
se ction</w>
li a</w>
jo se
gro wn</w>
gla sses</w>
fran ce</w>
el ds</w>
d ness</w>
circu m
c -
uni on</w>
sar ah</w>
h mmm</w>
do cu
den ts</w>
un usual</w>
quar ter</w>
p uni
non sense</w>
in ti
chin a</w>
sho ck</w>
rea lity</w>
re presen
ad d</w>
swa ld</w>
ro le</w>
pi lls</w>
n an
enterpri se</w>
tra ffi
stan ds</w>
roman tic</w>
mar tin
em per
bar on</w>
mi e</w>
lu m
fa cts</w>
base ball</w>
wa de</w>
me mber</w>
bull et</w>
tele phone</w>
sho ts</w>
murder er</w>
li m
le -
lan ds</w>
k ra
inter view</w>
behavi or</w>
tter ed</w>
restaur ant</w>
prin t</w>
oc ean</w>
o swald</w>
lar ly</w>
bu lle
th ri
tar get</w>
spi ra
sh hh</w>
sa lly</w>
plan ned</w>
night mare</w>
g n</w>
fla t</w>
fanta stic</w>
fa shi
de cent</w>
conne ction</w>
c hel
wife 's</w>
thur sday</w>
ran k</w>
perfor man
ob se
gre w</w>
for e
fa n</w>
disapp ear</w>
ba si
yel low</w>
so phi
repu tation</w>
ra t</w>
off ered</w>
lo aded</w>
i ly</w>
hea ded</w>
de ll</w>
confu sed</w>
brilli ant</w>
y --
vir gin
ti al</w>
pi e</w>
li ps</w>
lan ce</w>
honest ly</w>
de tails</w>
s now</w>
pu lling</w>
know ledge</w>
ja be
jabe z</w>
i ck</w>
exa mple</w>
en ded</w>
crow d</w>
val u
ro me</w>
reali zed</w>
p en</w>
gar bage</w>
brin gs</w>
arri ved</w>
laugh ing</w>
ex pla
woo ds</w>
ve ment</w>
g ton</w>
ff s</w>
engin e
deli ver
belon gs</w>
ba ttle</w>
b one</w>
a my</w>
thea ter</w>
sa r</w>
s wea
pl ant</w>
f its</w>
arti st</w>
wor ld
tt ed</w>
to wer</w>
thous ands</w>
s wal
re ti
qu ir
peri od</w>
ough ta</w>
je ssi
intelli gence</w>
da d's</w>
coura ge</w>
compli cated</w>
bir th</w>
thi ef</w>
swi m</w>
rep eat</w>
poli cy</w>
p han
logi st</w>
lo tta</w>
kenne dy</w>
it es</w>
fran ci
expen sive</w>
cla ssi
bra ve</w>
wa sting</w>
sid ney</w>
p ter</w>
hi dden</w>
fin gers</w>
con ce
ci l</w>
stu di
six teen</w>
pre ten
na sty</w>
l i</w>
introdu ce</w>
go ld
che cking</w>
am ount</w>
ag es</w>
si a</w>
ru ined</w>
pri son
le ss
go o
ex act</w>
chi ck</w>
ab itch</w>
sp here</w>
lan e</w>
ki cked</w>
i gh
har d
gu ts</w>
equi pment</w>
dir t</w>
co re</w>
bi lls</w>
al though</w>
v o</w>
ta ll</w>
syste ms</w>
ri e</w>
re d
pra y</w>
pa ssing</w>
mo o
mi xed</w>
it ation</w>
ge st</w>
ex -
el lie</w>
ck -
an n
ab ri
x an
vo lu
inv ite</w>
fe male</w>
drin ks</w>
an aly
pa int</w>
mira cle</w>
hun ting</w>
gra ve</w>
g y
da y's</w>
con diti
bu tt
attra ctive</w>
a gency</w>
sin ging</w>
screa ming</w>
sail or</w>
re ed</w>
man age</w>
ba gs</w>
ad di
a tive</w>
a do
sme lls</w>
si eur</w>
s ers</w>
qu o
origin al</w>
mon sieur</w>
itali an</w>
frank ly</w>
divor ced</w>
dd y's</w>
cou p
au th
z es</w>
we b
victi m</w>
to i
quar ters</w>
p 's</w>
kno cked</w>
har m</w>
fin an
deli ver</w>
ba rely</w>
val ue</w>
t s
russi a</w>
pi ano</w>
kar l</w>
crea te</w>
c ine</w>
vi ch</w>
spo ken</w>
sa yin</w>
oper a</w>
lu re</w>
les son</w>
inclu ding</w>
hell 's</w>
four teen</w>
di gn
cla ire</w>
bab ies</w>
tex as</w>
secre ts</w>
ru sh</w>
re ven
re spe
re be
pu ssy</w>
pi lot</w>
ja cqu
f ts</w>
as se
a va
ter ms</w>
ri an</w>
n it
audi ence</w>
sh y</w>
pi re</w>
per mission</w>
o x
migh ty</w>
in stitu
gan g</w>
wher ever</w>
w ound</w>
villa ge</w>
so a
si sters</w>
sha ke</w>
li ber
la ble</w>
k i</w>
dra g</w>
whe el</w>
sim one</w>
poin ts</w>
od d</w>
mi le</w>
exper t</w>
even tually</w>
dis gu
bu g</w>
performan ce</w>
lear ning</w>
il a</w>
fa ir
f ought</w>
ca sin
assi stant</w>
univer se</w>
so lid</w>
pa ck
p ity</w>
m bo
li qu
len ny</w>
hea ding</w>
ex p
de sire</w>
ck e
bor row</w>
an 's</w>
tu es
seven teen</w>
se tting</w>
pro cess</w>
ho mi
guar ds</w>
gu ests</w>
gho st</w>
exc iting</w>
com mer
cap able</w>
ca ses</w>
bu ry</w>
bod y
ab an
tri bu
to -
re scu
prin ce</w>
pre ci
po wers</w>
pin k</w>
par ano
oper ate</w>
m i</w>
lit er
appo intment</w>
a lan</w>
2 0</w>
satis fied</w>
possi bility</w>
lo ser</w>
ex t
emper or</w>
cu tting</w>
commit tee</w>
ce -
bu rea
bon d</w>
0 ,000</w>
wonder ed</w>
wal ks</w>
ter ry</w>
hu mi
hel p
ga y</w>
ff er</w>
enga ged</w>
con vi
colle ct</w>
co lum
car ter</w>
wit ne
sta tu
scre en</w>
n y
bur ger</w>
who re</w>
wha tta</w>
st a</w>
or ity</w>
milli ons</w>
je sse</w>
i lable</w>
ha ir
cha se</w>
vi sit
mb o</w>
i or</w>
gro wing</w>
centra l</w>
bi lli
atta cked</w>
wall et</w>
t re</w>
s par
reque st</w>
reck on</w>
re ser
pro m</w>
pa trick</w>
n is</w>
geni us</w>
su its</w>
oc cur
na m</w>
men 's</w>
hor se
hon ey
t its</w>
plea sant</w>
no thing's</w>
i g</w>
ge on</w>
e --
cha llen
alar m</w>
a de</w>
sy n
suc cess
m itch</w>
di sh</w>
da r</w>
cor n</w>
cli mb</w>
wi de</w>
tre es</w>
stan ces</w>
sco re</w>
ri se</w>
popu lar</w>
moun tain</w>
li c</w>
i da</w>
do min
sh rin
san ta</w>
ni cky</w>
confi dence</w>
comm unity</w>
co ke</w>
ca ble</w>
ange l</w>
af ri
af fe
ti m</w>
sto len</w>
sho e</w>
sa ving</w>
phi lli
ni gger</w>
cha mpa
bu tt</w>
zz a</w>
under standing</w>
scre wed</w>
nu clear</w>
na il</w>
ll -
ki lls</w>
g it
f ea
emo tional</w>
e mi
di stance</w>
com ra
ava ilable</w>
x es</w>
the o</w>
t ear</w>
son of
s w
ro yal</w>
ro me
reme ly</w>
pa ss
k e's</w>
fami lies</w>
fal ls</w>
ext remely</w>
desper ate</w>
b o</w>
z one</w>
tit le</w>
thro wn</w>
rou tine</w>
rou te</w>
me tal</w>
je ws</w>
impre ssed</w>
fle sh</w>
fa te</w>
consi dered</w>
ali ce</w>
there 'll</w>
spen ding</w>
pa th</w>
i ve</w>
ho les</w>
frien dly</w>
fran kie</w>
ed ward</w>
cr iti
champa gne</w>
ca e
as ha
trav el
sa s</w>
law yers</w>
k it</w>
com men
christ 's</w>
c ea
tin y</w>
t our</w>
int end</w>
ge ous</w>
cre e
youn ger</w>
tra ined</w>
st -
s wit
pi er
g len
fe lla
di stri
com mission</w>
bri an</w>
a ven
w ly</w>
sca ry</w>
p et</w>
lo an</w>
la un
jack ie</w>
ho pe
gh er</w>
conven i
author ity</w>
asha med</w>
a gen
ssi ons</w>
qu a
po e
l er
k ur
ill u
h on</w>
effe ct</w>
dis covered</w>
de ck</w>
d --
clean ing</w>
cha sing</w>
af fair</w>
sig ns</w>
re cen
recen tly</w>
p on
op er</w>
od ds</w>
ni ck
n n
mu m</w>
mo del</w>
memor ies</w>
guaran tee</w>
er t</w>
assho les</w>
z er</w>
victi ms</w>
stand ard</w>
safe ty</w>
ri sh</w>
phi lo
or an
mea l</w>
me ters</w>
kne es</w>
ke lly</w>
je ez</w>
hu d
heal thy</w>
franci sco</w>
forei gn</w>
e sti
destin y</w>
wa ve</w>
soldi ers</w>
seri es</w>
regre t</w>
pa ssion</w>
i ous</w>
g gy</w>
coa st</w>
cha un
am i</w>
val ley</w>
threa t</w>
ra re</w>
g li
fan cy</w>
e ze</w>
d in</w>
cae sar</w>
bu ck
brea thing</w>
base ment</w>
ba dly</w>
v ada</w>
thro wing</w>
thin g
sand wi
na z
muse um</w>
k an
ho ok
die go</w>
b on</w>
a la
tues day</w>
traffi c</w>
te sts</w>
t ors</w>
sonof abitch</w>
l ers</w>
di sc
cla im</w>
ca stle</w>
that 'd</w>
so f
sco t
pun ch</w>
lea der</w>
j or
vi s
tri cks</w>
t --
slo wly</w>
sea son</w>
sc in
re ma
pen ny</w>
f ted</w>
den y</w>
chaun cey</w>
ben e
tw o
the e</w>
s wan
peop le's</w>
offi cial</w>
in fe
ima ge</w>
eli za
da y
consci ous</w>
ch er
b our
a st</w>
a side</w>
sens itive</w>
hea da
g ree</w>
con fir
ca de
be in</w>
b -
ale xan
who 'd</w>
ur ed</w>
t us</w>
pani c</w>
offi cers</w>
offen se</w>
ob ject</w>
mi ami</w>
lo a
ga le</w>
eliza beth</w>
ba sed</w>
- in-
su sie</w>
su it
relea se</w>
li sa</w>
hu mor</w>
fai lure</w>
di d
stea dy</w>
s can
pu ts</w>
lo ss</w>
fa scin
f on
ex pre
b ou
as sig
a mb
win ter</w>
thera py</w>
terri bly</w>
ter m</w>
su spe
sna ke</w>
reven ge</w>
poli ce
part ners</w>
p are</w>
mu si
mo z
mi cro
medi cine</w>
ma s
inter ru
in flu
ger man</w>
el li
de mon
chan ging</w>
bor ed</w>
ber y</w>
x ter</w>
war n</w>
vo te</w>
shi ft</w>
ra b
no tes</w>
la ws</w>
god dam</w>
em pire</w>
e ye
dou g</w>
de -
circum stances</w>
at t</w>
ameri cans</w>
ven ture</w>
pla y
mur ders</w>
jea n</w>
it a
easi ly</w>
d ust</w>
con su
b its</w>
wa n</w>
v ey</w>
toi let</w>
s car</w>
rome o</w>
reason able</w>
mo tel</w>
ho ward</w>
h its</w>
any how</w>
a vi
suc cess</w>
particu larly</w>
mur phy</w>
lea ding</w>
interest s</w>
hou ses</w>
gu e
gre es</w>
ene mies</w>
cra ig</w>
b y
st an</w>
ne il</w>
k ru
inspe ctor</w>
i cal</w>
gho sts</w>
ex plan
ex er
dro w
do ll</w>
blon de</w>
a ce</w>
ther ine</w>
re gar
ran ch</w>
pla ced</w>
go sh</w>
dam mit</w>
d y's</w>
cer ti
casin o</w>
ca mp
bur g</w>
be coming</w>
1 8
y an
wo man's</w>
win d
wh it
the -
swee tie</w>
studi o</w>
sti an</w>
she lly</w>
s sel</w>
pa thetic</w>
ob li
non -
kin ds</w>
je wish</w>
hus ban
ell en</w>
be low</w>
be e
what 'll</w>
war ning</w>
un happy</w>
politi cal</w>
par king</w>
neigh bor</w>
le ct
in ts</w>
ed ge</w>
ca ts</w>
blo wn</w>
ag nes</w>
thou se</w>
tha ts</w>
sa le</w>
moz art</w>
miser y</w>
lo u</w>
le x</w>
high er</w>
ger y</w>
co ca
ba xter</w>
arran ged</w>
abo ard</w>
1 5</w>
schedu le</w>
pi ck
mo der
li br
l der</w>
hun g</w>
har der</w>
g ear</w>
do pe</w>
da wn</w>
appro pri
- of-
wa lls</w>
tur ed</w>
sea n</w>
re su
phi l</w>
or es</w>
kar en</w>
i st</w>
fi shing</w>
dire ctly</w>
stea ling</w>
star ing</w>
se 's</w>
k ev
exa min
enti rely</w>
eigh ty</w>
colle ction</w>
brea d</w>
tch es</w>
pre pare</w>
pain ting</w>
il legal</w>
f lies</w>
drea ming</w>
con ference</w>
bulle ts</w>
ann oun
wan ting</w>
un it</w>
u r</w>
tru sted</w>
tch er</w>
stu dent</w>
st al</w>
refu se</w>
r on</w>
parti es</w>
mo b</w>
li on</w>
impre ssion</w>
flo wer</w>
f it
enter tain
e sc
de pu
a ture</w>
we d
s '
must n't</w>
je anne</w>
insi st</w>
eg g</w>
da ting</w>
cha mpi
bo ston</w>
star fleet</w>
sho re</w>
se cure</w>
rememb ered</w>
p ti
o 's</w>
mo le
lo is</w>
l -
jessi ca</w>
humi li
good ness</w>
ga tion</w>
flor ida</w>
ct or's</w>
consi der
citi zen</w>
char ges</w>
burea u</w>
bi lities</w>
uni form</w>
sw eat</w>
ren der</w>
re ward</w>
in ted</w>
high ly</w>
ha t
gar diner</w>
g gin</w>
fra me</w>
four th</w>
exer ci
wor kin</w>
sli gh
s ni
s and</w>
ri cky</w>
pro gress</w>
mach ines</w>
lo mb
ga ge</w>
co inci
cho co
bi ble</w>
b bed</w>
a de
sta ke</w>
should a</w>
pa s
le on
is su
for ms</w>
f ed</w>
e than</w>
bastar ds</w>
b ound</w>
va ri
to re</w>
pi sto
p an</w>
mar ks</w>
appro ach</w>
app ear</w>
war ri
v ani
st ment</w>
rob bed</w>
re qui
on a</w>
ne ed
lou ise</w>
lea gue</w>
dire ction</w>
cra ft</w>
car ried</w>
advan tage</w>
ve hi
te ll
swi mming</w>
re fer
poi son</w>
ox y
mb ling</w>
do yle</w>
do w
ba n</w>
an a
a du
1 0
tra ce</w>
th a</w>
terr ori
t ant</w>
sli p</w>
sh an
ser vi
re v
or e
mp h</w>
in ch</w>
f l
descri be</w>
d die</w>
c i</w>
bu ll</w>
admi re</w>
solu tion</w>
sol ve</w>
repor ter</w>
pe e</w>
patter n</w>
on a
no -
me ter</w>
grand father</w>
fif ty-
d it
chri ssa
che e
ca used</w>
bor der</w>
wi ll
ver age</w>
thir teen</w>
tch a</w>
t ment</w>
ste ps</w>
sk u
sil ver</w>
mor al</w>
en na</w>
de tail</w>
dal las</w>
cab in</w>
ange les</w>
year -
tri gger</w>
trea ted</w>
squ ad</w>
snea k</w>
pe el</w>
jo y</w>
in stin
whe el
vi k
ra il
nu t</w>
materi al</w>
mar y
ma id</w>
lo cation</w>
explan ation</w>
coun ting</w>
bother ing</w>
be gan</w>
vie t
tun nel</w>
shar p</w>
sa les</w>
rescu e</w>
pre di
po w
p her</w>
lo ve
libr ary</w>
clean ed</w>
basi cally</w>
al bert</w>
shou lder</w>
rob in
re main</w>
re ce
no w
de m
co ll
ba sic</w>
-- the</w>
win dows</w>
univer sity</w>
ter y</w>
success ful</w>
stro ke</w>
si e
hand some</w>
fo cus</w>
bo ok
be l</w>
wy att</w>
vik tor</w>
sugge sti
s ite</w>
re fle
mo bi
mayo r</w>
ju mped</w>
fuck ers</w>
f are</w>
en ter</w>
de cla
confe ssion</w>
ce l</w>
an xi
ter rit
ste ph
s i</w>
posse ssion</w>
p earl</w>
lo wer</w>
kan sas</w>
jo kes</w>
ig n</w>
hur ting</w>
hundre ds</w>
ca therine</w>
appropri ate</w>
a hh</w>
we stern</w>
st ones</w>
spe ll</w>
myster y</w>
ma ss</w>
elev ator</w>
di stra
d le</w>
chi p</w>
sig ni
r y's</w>
pul se</w>
psy cho</w>
mo on
man n</w>
lo ving</w>
i ra
ho sti
di ane</w>
coca ine</w>
am ba
wed ne
ss a</w>
sa la
pri ck</w>
n un
mm mm</w>
hol ds</w>
cow boy</w>
convin ced</w>
ca ge</w>
bu tton</w>
al co
super man</w>
star ling</w>
sho t
lo ver</w>
jun k</w>
indi vi
ev ents</w>
custo mers</w>
coun ter</w>
a c</w>
y up</w>
x x
wor rying</w>
ti me
stra tion</w>
ri son</w>
ph ra
mi ller</w>
ma r</w>
ma kin</w>
hi lls</w>
fro zen</w>
fran ces</w>
def end</w>
wor thy</w>
vir gin</w>
ta kin</w>
t i</w>
sex y</w>
sa les
sa cri
rai sed</w>
prote ction</w>
ou l</w>
en 's</w>
embarra ssing</w>
can dy</w>
bea m</w>
bar nes</w>
an ni
under ground</w>
th is
pp in</w>
pla te</w>
p rea
ow ns</w>
ki r
instru ctions</w>
hear t
exi st
boo m</w>
bar s</w>
ar gue</w>
amba ssa
al le
war rant</w>
temp or
ster 's</w>
ski p</w>
sho pping</w>
oran ge</w>
k ri
jen ni
intelli gent</w>
hel en</w>
happ iness</w>
g lo
feder ation</w>
eri c</w>
di me</w>
de sign</w>
choco late</w>
bur ns</w>
app ears</w>
alter na
a gree
z ard</w>
suffer ing</w>
sp read</w>
smo o
o tis</w>
mi ll</w>
ma d
indivi du
dar lin</w>
conne cted</w>
bow ling</w>
1 2</w>
willi e</w>
wea l
ve lo
unfortun ately</w>
shrin k</w>
scra tch</w>
ni gh
mo m's</w>
mb ing</w>
mb er
ma dam</w>
fa il</w>
de pen
clo sing</w>
bro ad
an cient</w>
ver oni
ti cally</w>
sh ort
r t</w>
foot ball</w>
fif th</w>
ff in</w>
f ying</w>
dar kness</w>
consi dering</w>
cer e
ca p</w>
believ able</w>
arti cle</w>
world 's</w>
the l
s kin
p ro</w>
mir ror</w>
j a</w>
goddam nit</w>
du re</w>
convin ce</w>
bother ed</w>
bea st</w>
alexan der</w>
1 4</w>
te mper
s wing</w>
rea ched</w>
pp ers</w>
ne t
figu res</w>
could a</w>
commit ted</w>
bi o
assig nment</w>
as ses</w>
argu ment</w>
a tic</w>
st able</w>
sett led</w>
ro cks</w>
lli e</w>
jour ney</w>
hit ting</w>
hi ll
hea ther</w>
fi ve-
ea ten</w>
e tta</w>
e state</w>
comm it</w>
ble eding</w>
ar ro
am bu
z zy</w>
vi sible</w>
spor ts</w>
pa tri
oxy gen</w>
k o</w>
j on</w>
high -
fa ctory</w>
che cks</w>
ce lls</w>
anti -
tur key</w>
stru ck</w>
so re</w>
pu pp
miser able</w>
mar sh</w>
foo lish</w>
cur se</w>
confe ss</w>
witne sses</w>
v or</w>
sin ger</w>
qu ali
jan et</w>
in iti
homi cide</w>
gra y</w>
bo y's</w>
ba l</w>
avo id</w>
as sure</w>
z u
x ing</w>
t ence</w>
pri est</w>
politi cs</w>
f le</w>
ca ro
bo w</w>
b lin
aven ue</w>
year- old</w>
sur face</w>
ro se
rab bit</w>
pre su
pre cious</w>
man u
ju ice</w>
hal f
fu l
ci le</w>
cha in</w>
bea ts</w>
' a</w>
wen dy</w>
veroni ca</w>
u n</w>
tra pped</w>
t man</w>
sh ine</w>
pro je
ph ony</w>
pa cked</w>
ma ke
jacqu el
gra ham</w>
esca ped</w>
be comes</w>
an gle</w>
zo o</w>
u va</w>
thel ma</w>
sh ment</w>
person ality</w>
ma 's</w>
m our</w>
jenni fer</w>
influ ence</w>
h --
fella s</w>
dun bar</w>
ac tive</w>
z o</w>
y u
vi le
thea tre</w>
sy mp
psychiatri st</w>
pri vile
pla stic</w>
par ker</w>
jose ph</w>
ja mie</w>
hel ps</w>
ger 's</w>
di g
continu ed</w>
com bin
boo ts</w>
ber n
wor th
ver sion</w>
u d</w>
tea ching</w>
supp er</w>
shi eld</w>
sacri fi
re mo
plan es</w>
na vy</w>
lin a</w>
kev in</w>
g gle</w>
est ab
co me
clau de</w>
char ley</w>
ba dge</w>
wor ker</w>
wan ta</w>
too th</w>
tech no
s mu
re i
prote cting</w>
obje ction</w>
neighbor s</w>
mi ssion
jo ined</w>
ja pan
go lf</w>
fu el</w>
fa ces</w>
begin s</w>
afri ca</w>
a i
tor ture</w>
sun der
speci es</w>
servi ces</w>
ri p
provi de</w>
pres ence</w>
mi sunder
e y's</w>
dee ds</w>
da ddy's</w>
cu lar</w>
con gress</w>
clu e</w>
y n</w>
wo l
to es</w>
p ts</w>
na than</w>
life 's</w>
j am</w>
goddam ned</w>
f oun
en vi
di stin
bla h</w>
b id</w>
su al</w>
so m</w>
sk y
signi fi
separ ate</w>
s que
ri gh
produ ct</w>
pos iti
out a</w>
o w</w>
ma t
law son</w>
gu es</w>
do e</w>
civi l</w>
car pen
busin ess
twenty- four</w>
tax i</w>
sla ugh
si de
she ila</w>
recei ved</w>
po ten
mini ster</w>
ha l</w>
for ces</w>
coinci dence</w>
ca ls</w>
bro ok
be side</w>
bar re
bar bar
ambassa dor</w>
a cade
sur render</w>
sli pped</w>
seven ty</w>
seri al</w>
rela ted</w>
rea ction</w>
pati ents</w>
nine teen</w>
mu sc
li p</w>
laur a</w>
l on</w>
ki rk</w>
ke y
is m</w>
hell uva</w>
en t's</w>
du ke</w>
de grees</w>
con clu
clo se
bu gs</w>
wha dd
testi fy</w>
tea rs</w>
ru b</w>
ki es</w>
jun gle</w>
gover nor</w>
e ter
de gree</w>
cap ital</w>
' m</w>
wh y's</w>
vo lun
vin ce</w>
tun e</w>
tr in
su ffer</w>
strea m</w>
sa tell
robin son</w>
out fit</w>
oun ding</w>
mor e
hy po
gi ant</w>
fal se</w>
ex it</w>
believ es</w>
be lt</w>
viol ence</w>
trea ting</w>
trea sure</w>
supp or
st ops</w>
sp ani
ner 's</w>
ly dia</w>
ju lie</w>
grand ma</w>
girl 's</w>
g all
compli ment</w>
c red</w>
barbar a</w>
ba tter
5 00</w>
wedne sday</w>
wa shed</w>
seven ty-
sen ti
ri er</w>
mar cus</w>
her r</w>
g run
enjo yed</w>
che ese</w>
bow l</w>
web ster</w>
sy mpa
stron ger</w>
sti cks</w>
s ounded</w>
re volu
pre -
n '
moun tains</w>
mista kes</w>
life time</w>
kin g
in crea
home work</w>
ho o
exist ence</w>
con struction</w>
ch ris</w>
bu t
bb ing</w>
1 00</w>
z ar
ma i
ki llers</w>
in stance</w>
hu man
ge o
experi ment</w>
embarra ssed</w>
cha t</w>
br and</w>
b es</w>
y ards</w>
wor m</w>
tro it</w>
stran ger</w>
rob bery</w>
pa lace</w>
h ers</w>
g ment</w>
every day</w>
de troit</w>
b ing</w>
answer ed</w>
well -
vi ct
tri p
thu r</w>
sou p</w>
sin s</w>
ph ine</w>
or ies</w>
newspa pers</w>
mon key</w>
mar ge</w>
ko vich</w>
it a</w>
inven ted</w>
il er</w>
ha i
figh ter</w>
co tton</w>
at lan
ar thur</w>
a bu
tra il</w>
testi mony</w>
ro d</w>
ou ch</w>
lan d
jo sh</w>
jo king</w>
je w</w>
japan ese</w>
honey moon</w>
ci es</w>
ver ly</w>
sna p</w>
screa m</w>
ra pe</w>
pa ys</w>
m ck
holi day</w>
han nah</w>
clau dia</w>
chi ll</w>
win ning</w>
use less</w>
te 's</w>
sp y</w>
r i</w>
pati ence</w>
ow ned</w>
o tic</w>
mar ch</w>
is ra
i so
fa iled</w>
ex change</w>
der ick</w>
deli very</w>
de lu
boa ts</w>
arran ge</w>
4 0</w>
y alty</w>
war ned</w>
vi ctory</w>
un believable</w>
u ses</w>
ti er</w>
se du
sa cred</w>
s key</w>
organi zation</w>
oo oo
nu n</w>
ni x
me chan
gen e</w>
f ence</w>
con sequ
comm end</w>
bloo d
b ren
app le</w>
valu able</w>
v on</w>
suspi cious</w>
ru de</w>
philo so
must a</w>
g ust</w>
frien d's</w>
fi cation</w>
exper im
ev ed</w>
dick ie</w>
depu ty</w>
com mo
ch in</w>
at ors</w>
app li
a verage</w>
-in- law</w>
zz o</w>
z ie</w>
thir ty-five</w>
supp lies</w>
sle y</w>
sha dow</w>
sa lt</w>
re turned</w>
psychi c</w>
pack age</w>
occur red</w>
o o</w>
ne ls</w>
inve stment</w>
in n</w>
i z
hor ror</w>
free zing</w>
bu l
wi ves</w>
sur geon</w>
su peri
stu ff
statu e</w>
see k</w>
photogra ph
er in</w>
bu tter</w>
an ts</w>
we ls</w>
virgin ia</w>
vin cent</w>
v ard</w>
under wear</w>
tu al</w>
th -
ta x</w>
su cks</w>
polit e</w>
na ils</w>
mary lin</w>
jun e</w>
je wel
inter national</w>
ha bit</w>
git tes</w>
gen u
free ze</w>
fo x</w>
distri ct</w>
dea n</w>
co sts</w>
au stin</w>
: 30</w>
wor n</w>
te ddy</w>
sto pping</w>
sig nature</w>
sho wn</w>
re commen
ki d's</w>
insu l
i al</w>
hi d</w>
har m
crea tures</w>
ch ers</w>
ca red</w>
blo cks</w>
back ground</w>
we ed</w>
va li
t ory</w>
she ets</w>
sen ior</w>
pro po
pas sport</w>
pa tro
o tch
la ck</w>
inci dent</w>
hear ts</w>
heada che</w>
dev ice</w>
d der</w>
cru el</w>
coun sel
bri ef
< b></w>
6 0</w>
z ens</w>
would a</w>
w ounded</w>
soa p</w>
s ly</w>
mar vel
k ate</w>
j us</w>
itu al</w>
igno re</w>
gra phi
go ds</w>
experi en
do or
demo cra
comp ani
col ored</w>
bro ad</w>
be verly</w>
aban don
y uh</w>
wor k
vampi res</w>
ro t</w>
re move</w>
proce ed</w>
pos ite</w>
per ver
mo vement</w>
la mper
j ill</w>
good- bye</w>
glen n</w>
g ren
frien d
ex hi
dign an</w>
deliver ed</w>
cre ep</w>
co w</w>
brea ks</w>
bar gain</w>
ba il</w>
agen ts</w>
we ir
to by</w>
techno logy</w>
sea led</w>
s or</w>
rever end</w>
preci sely</w>
mp er</w>
ma tt</w>
l son</w>
k le</w>
hea ven
fre ddie</w>
finan cial</w>
e thi
e ger</w>
dea d
bea ting</w>
be ll
be ef</w>
ba cks</w>
2 2</w>
w es</w>
ve ssel</w>
ssa ges</w>
sla ve</w>
pi zza</w>
ma son</w>
ma ker</w>
for est</w>
drea med</w>
da ted</w>
comra de</w>
aw fully</w>
assa ssin
ac compli
we st
tu b</w>
tru man</w>
sy mbo
sen tence</w>
pri ze</w>
parano id</w>
ma rs</w>
le ton</w>
g gers</w>
fe e</w>
emplo ye
e ds</w>
do ck</w>
cli ents</w>
che ss</w>
ce ful</w>
wait in</w>
to ler
t ons</w>
stan ley</w>
st es</w>
ra in
pho to</w>
pe an
mer cy</w>
me mbers</w>
lun atic</w>
lamper t</w>
impre ssive</w>
how 're</w>
he li
g abri
fru it</w>
exerci se</w>
en ger</w>
e die</w>
du mped</w>
con science</w>
co y</w>
ca ta
ca mpa
wi s
vict ori
st u</w>
ss er</w>
sie u</w>
sen ate</w>
radi ation</w>
qu ain
ob ser
m' sieu</w>
john nie</w>
ita ly</w>
husban d's</w>
goddam mit</w>
for th</w>
exi sts</w>
ea l</w>
dro pping</w>
disgu sting</w>
dia mond</w>
cul ture</w>
co ordin
bu tter
bla de</w>
trea tment</w>
sur es</w>
sca le</w>
ri st</w>
repor ts</w>
pri de</w>
pi rate</w>
le ans</w>
ho se</w>
ev el
e x</w>
cal cu
bur gla
bar ry</w>
ali en</w>
ac hi
ste war
sku ll</w>
san dy</w>
religi ous</w>
rail road</w>
qu it
pu shed</w>
ph ones</w>
pa ges</w>
ne tte</w>
ne st</w>
mag ne
han ded</w>
ha ra
gra dy</w>
fil thy</w>
fanta sy</w>
fal len</w>
ad mit
w ns</w>
s nu
ri p</w>
re x</w>
police man</w>
mean time</w>
marvel ous</w>
lu cy</w>
jewel ry</w>
jacquel ine</w>
g ary</w>
en velo
cro ssed</w>
con spira
ca it
as ks</w>
you --
w it</w>
st en</w>
spani sh</w>
sk et</w>
sh -
sa lad</w>
pisto l</w>
otch ka</w>
n 's</w>
mar es</w>
lo on</w>
le ster</w>
le in</w>
inter vie
did nt</w>
dev o
d all</w>
cho sen</w>
char ged</w>
attemp t</w>
an ger</w>
advi se</w>
abandon ed</w>
-- but</w>
ye lling</w>
val en
u ts</w>
sp ite</w>
re sul
ra tion</w>
pa t
pa ct</w>
p les</w>
mb led</w>
jen ny</w>
gor geous</w>
glor y</w>
gg ling</w>
ex press</w>
cla y</w>
che tt</w>
cha ir
ca tes</w>
appea rance</w>
you -
vi a</w>
v ance</w>
stu dents</w>
ste el</w>
st or</w>
shi elds</w>
rip ley</w>
re present</w>
plu g</w>
pi ed</w>
li ver</w>
ger mans</w>
du ck</w>
discu ssion</w>
de termin
comple x</w>
comfor t</w>
ci sm</w>
cho ices</w>
bal l
any time</w>
4 5</w>
yo n</w>
y i
to y</w>
to s</w>
there fore</w>
t one</w>
sy l
supp ly</w>
suit case</w>
stor age</w>
si mi
rou gh
ri pped</w>
respon se</w>
ra z
men d
lu m</w>
less ons</w>
k er
envi ron
coun ter
chi cks</w>
bor ro
bo ar
ba c
avo i
use ful</w>
trans fer</w>
tra sh</w>
threaten ed</w>
sur gery</w>
su per</w>
sa mu
ro tten</w>
ri o
pro motion</w>
pro file</w>
pi l
nin otchka</w>
n y's</w>
moder n</w>
mi key</w>
mer ely</w>
medi a</w>
jour na
hud son</w>
fil ms</w>
exp lor
ck in</w>
w ray</w>
tran ce</w>
sor s</w>
sil ence</w>
shot gun</w>
ri fle</w>
re commend</w>
or able</w>
o oh</w>
night mares</w>
mul wray</w>
me ssed</w>
max ine</w>
ma gi
lo cker</w>
li ght
juli a</w>
he ck</w>
di l</w>
cy cle</w>
chu ck</w>
carpen ter</w>
a di
s ary</w>
per man
pal m</w>
pa tch</w>
mor tal</w>
me tho
ing -
heli co
fre qu
di scre
dea ler</w>
cle men
ca ting</w>
bri de</w>
agree ment</w>
act ed</w>
wer e
ve ge
suspi ci
sur r
sel fish</w>
ru m</w>
rea ds</w>
quo te</w>
preten ding</w>
pp le</w>
po ker</w>
pau lie</w>
no vel</w>
hosti le</w>
haw k</w>
gran ted</w>
fun ction</w>
fa bu
fabu lous</w>
edu cation</w>
da ya</w>
concentra te</w>
co stu
c table</w>
bi ll
at mo
vul can</w>
volun te
ti cal</w>
se c</w>
sco w</w>
sco tty</w>
s z
s 'll</w>
ri ly</w>
re minds</w>
pa role</w>
mor on</w>
mor nin</w>
mo scow</w>
man ner</w>
i rish</w>
har vard</w>
ev a
eng ine</w>
de signed</w>
ci ally</w>
c loud</w>
brook lyn</w>
bal ance</w>
whi skey</w>
wha ts</w>
viet nam</w>
ty ler</w>
tra cks</w>
to ast</w>
ski pper</w>
sil ent</w>
sh h</w>
ru bber</w>
no ld</w>
n eat</w>
in visible</w>
har d-
gra m</w>
feel in</w>
doo little</w>
ct u
can cel</w>
ca pa
blo ws</w>
ar nold</w>
appro a
a pri
warri or</w>
w w</w>
vo ices</w>
u mm</w>
tou ching</w>
si ck
sa il</w>
roo m
p se</w>
on ey</w>
le y's</w>
kidna pped</w>
k lin
individu al</w>
hor n</w>
ho lly</w>
gra il</w>
fol k</w>
deb bie</w>
da tion</w>
cu z</w>
cou ch</w>
compu ters</w>
communi st</w>
ca ve</w>
blu e
an th
an -
all -
1 7</w>
war p</w>
viol ent</w>
t to</w>
sul u</w>
smoo th</w>
s its</w>
re 's</w>
proce dure</w>
p ly</w>
on -
ma ck</w>
lor etta</w>
ki ssed</w>
gra ph</w>
g it</w>
fa ci
cri sis</w>
con tain
celebra te</w>
ca tho
ba te</w>
as kin</w>
al vy</w>
wre ck</w>
twi sted</w>
ta t
ta stes</w>
ta sk</w>
stre tch</w>
sea l</w>
rema ins</w>
re tired</w>
re sid
re quir
r and</w>
poe try</w>
on e
ner ves</w>
mista ken</w>
liqu or</w>
le w
ja h</w>
inde pen
in f
fu ss</w>
four -
f ever</w>
dre ssing</w>
dra ke</w>
dis ci
dd in</w>
cti ves</w>
clo set</w>
ch t</w>
too th
swal low</w>
stru cture</w>
stran gers</w>
si an</w>
seven -
ow ner</w>
oper ations</w>
off ering</w>
occa sion</w>
net work</w>
n ings</w>
me ta
mar rying</w>
lo yalty</w>
hand led</w>
guil t</w>
fin est</w>
dick son</w>
confi denti
cl er
ba tt
as signed</w>
ur gent</w>
stu re</w>
sa int</w>
pu shing</w>
poi son
p sy</w>
p at</w>
ma th</w>
ma tes</w>
k ent</w>
jer sey</w>
ha llo
gold en</w>
effe cts</w>
der 's</w>
de ton
d ley</w>
d less</w>
cha mber</w>
ban g</w>
b last</w>
ar chi
2 0
wi shes</w>
tro ops</w>
ther n</w>
sti cs</w>
stea k</w>
sala ry</w>
re g
me lan
mc murphy</w>
mal kovich</w>
list ened</w>
ju mping</w>
jack son</w>
happ i
ght ful</w>
ex ten
campa ign</w>
ca de</w>
ad vance</w>
</ b></w>
vehi cle</w>
t itude</w>
stri p</w>
sque eze</w>
sour ces</w>
se ctor</w>
sales man</w>
qu in
pur se</w>
pi ke</w>
me ssages</w>
man ners</w>
li sm</w>
kra mer</w>
ki ssing</w>
ho mer</w>
gal la
fre ddy</w>
fascin ating</w>
f ry</w>
ea s</w>
dra wn</w>
don ald</w>
din o
bud dies</w>
ber lin</w>
be l
wea kness</w>
tru cks</w>
stu dying</w>
re place</w>
pun k</w>
pra yer</w>
o z</w>
j et</w>
insu lt</w>
in spi
high way</w>
grand mother</w>
gin a</w>
ge l</w>
for mer</w>
expen ses</w>
elli ot</w>
ea ts</w>
dy na
cur rent</w>
cry stal</w>
coun ts</w>
co oper</w>
al li
actu al</w>
v ac
tra ge
tal s</w>
pi le</w>
pi gs</w>
myster ious</w>
mp son</w>
mon ds</w>
ma ture</w>
identi fy</w>
ho ped</w>
ge ments</w>
ex cu
ev an</w>
el vis</w>
den nis</w>
dan a</w>
corpor ate</w>
ca me
bun ny</w>
au ggie</w>
- in</w>
wa ves</w>
st ab
scienti sts</w>
pro mo
pi es</w>
pi cal</w>
nine ty</w>
ni ce
mal col
laun ch</w>
hy ster
ha y
gu m</w>
di plo
counsel or</w>
communi cations</w>
cho se</w>
challen ge</w>
ce ssa
bro ther's</w>
bo t</w>
billi on</w>
ba sis</w>
steph en</w>
st ler</w>
sco tch</w>
sandwi ch</w>
pp s</w>
po st
pi pe</w>
per mit</w>
mo de
min ded</w>
martin i</w>
le d
imagin ation</w>
hundre d-
execu tive</w>
colla r</w>
blan k</w>
b less</w>
ad venture</w>
' em</w>
your selves</w>
un known</w>
un its</w>
tin a</w>
ti ps</w>
suc ce
stri al</w>
ster ed</w>
ss in</w>
she ll</w>
scho o
resu lt</w>
prison er</w>
pre par
p li
p it</w>
no ble</w>
mo ments</w>
mer rick</w>
man hat
manhat tan</w>
m us</w>
lim its</w>
k et</w>
hh hh</w>
galla gher</w>
fuck s</w>
fri ed</w>
epi so
distur bed</w>
de we
confir med</w>
chan nel</w>
champi on</w>
buil dings</w>
auth ori
al ley</w>
a im</w>
wal ker</w>
ti re</w>
sp it</w>
son -of-
poten tial</w>
p ou
oper ating</w>
op posite</w>
on y
mon i
min or</w>
mana ged</w>
lyn n</w>
lo g</w>
la und
conditi ons</w>
compla ining</w>
bo xes</w>
' s-
war ren</w>
ta r</w>
t z
suggesti on</w>
speci fic</w>
sch u
produ ction</w>
po ta
pier ce</w>
pa ci
p our</w>
or leans</w>
institu tion</w>
gu t</w>
fun d</w>
for ty-five</w>
evel yn</w>
es is</w>
conce pt</w>
blan ca</w>
ber ry</w>
sha ke
respon d</w>
pu mp</w>
lu la</w>
lo bby</w>
laugh s</w>
k night</w>
he i
gener ous</w>
fa ced</w>
di gging</w>
de ce
d na</w>
conne ll</w>
col or
co operate</w>
co lo
ch ron
bru sh</w>
anxi ous</w>
a mu
win s</w>
unfortun ate</w>
tor pe
th ful</w>
son gs</w>
sear ching</w>
produ ce</w>
pow der</w>
pi ra
pay ment</w>
n thi
n ity</w>
la ying</w>
ke e</w>
ja zz</w>
ho ld
fir ing</w>
fe llo
el 's</w>
di ction</w>
cy nthi
conspira cy</w>
combin ation</w>
cock tail</w>
ce me
ad mini
ad ju
worth less</w>
th r
ta g</w>
spa ce
sco pe</w>
ro sa
re y
phra se</w>
issu es</w>
ir on</w>
gro ss</w>
gen esis</w>
en trance</w>
en ding</w>
el se's</w>
dra gon</w>
craw ling</w>
co s
che er</w>
ch -
bern stein</w>
be have</w>
arri ve</w>
an na
a mm
ver sary</w>
ti ming</w>
scri ption</w>
pro fit</w>
practi cal</w>
oa th</w>
o h-
nix on</w>
ma ll</w>
lin col
j i
in qui
gra ss</w>
cru sh</w>
coup la</w>
conven tion</w>
con stan
beau mont</w>
arch ite
acade my</w>
wi e</w>
wh a</w>
well --
wait er</w>
ul ti
ti me's</w>
t ity</w>
t ball</w>
sta ges</w>
st ring</w>
sp len
six -
shi p's</w>
scienti st</w>
sa avi
re pea
pro ved</w>
pro se
occa si
li z</w>
ki ddin</w>
f und
esti mate</w>
en tal</w>
dia monds</w>
d ough</w>
d ity</w>
cover ing</w>
com plain</w>
com mission
b ble</w>
b 's</w>
1 8</w>
vin gs</w>
to on</w>
sur ve
stra i
requir es</w>
reg ard</w>
re moved</w>
proper ly</w>
pe ggy</w>
mobi le</w>
mm -
ma lly</w>
m ere</w>
le i
introdu ced</w>
inten tion</w>
hi stor
go ose</w>
gh ted</w>
g ant</w>
fran c
fa g
el le</w>
ef fort</w>
dewe y</w>
den tal</w>
d ant</w>
cor ru
compe t
ch y</w>
c row</w>
boo th</w>
ba tion</w>
act ress</w>
y sing</w>
y ment</w>
thi ck</w>
ta le</w>
spir its</w>
so cks</w>
sex u
sc ent</w>
sa ck</w>
run nin</w>
ro th</w>
ra bb
pro to
pre ysing</w>
p ony</w>
mi x</w>
li mit</w>
ko v</w>
ir re
inter nal</w>
i ses</w>
gen e
fri ed
enjo ying</w>
di vi
depre ssed</w>
cu ba</w>
cait lin</w>
b end</w>
si mon</w>
she et</w>
seven ty-five</w>
se ts</w>
scre w
sc out</w>
repor ted</w>
po ps</w>
per su
mi x
mer le</w>
m ite</w>
lea f</w>
k ong</w>
ira q
fai ry</w>
f ton</w>
f ting</w>
disappo inted</w>
commer cial</w>
certi fi
catch ing</w>
bene fit</w>
attra cted</w>
an no
acce pted</w>
a pe</w>
2 4</w>
ya cht</w>
win ner</w>
vir tu
tu m</w>
stu died</w>
ste w</w>
ss -
simi lar</w>
shel ter</w>
sha king</w>
sea ttle</w>
reser vation</w>
ra y
pu lls</w>
prea cher</w>
lincol n</w>
li p
kee per</w>
ho l</w>
gi vin</w>
gi g</w>
for med</w>
f ere</w>
expre ssion</w>
ev es</w>
di ary</w>
dea f</w>
clo a
chrissa ke</w>
ag gre
a to
ye ssi
v ant</w>
un conscious</w>
ten der</w>
tempor ary</w>
tan k</w>
ta p</w>
t- up</w>
su ite</w>
sta ys</w>
se le
saavi k</w>
re stra
re cru
poli sh</w>
lin ed</w>
l y's</w>
it y's</w>
hallo we
gre g
ge ez</w>
franc is</w>
f low</w>
e pps</w>
dra wing</w>
de po
cke tt</w>
ble -
apri l</w>
af fa
accoun ts</w>
a id</w>
a ck
y' all</w>
sti ff</w>
satell ite</w>
religi on</w>
re view</w>
p ound</w>
ow es</w>
op ens</w>
lon g
i den
g ler</w>
friend ship</w>
fla g</w>
exc lu
de struction</w>
coun cil</w>
con vent</w>
com bat</w>
col ors</w>
chair man</w>
capa city</w>
business man</w>
betra yed</w>
anth ony</w>
ac qui
2 5</w>
wy n
wi dow</w>
u ps</w>
trage dy</w>
su b</w>
stra igh
six ty-
sha w</w>
re du
pen e
p ting</w>
offi ces</w>
nigh t's</w>
neu ro
nan cy</w>
mor gue</w>
mo thers</w>
mer ry</w>
mar ked</w>
lo cate</w>
la p</w>
la bor</w>
helico pter</w>
envelo pe</w>
ele ction</w>
de er</w>
da i
chea ting</w>
au stri
au gust</w>
atmo sphere</w>
year 's</w>
wa rs</w>
wa lly</w>
vis iting</w>
vampi re</w>
un comfortable</w>
teen th</w>
te ls</w>
sta cy</w>
sco o
scienti fic</w>
sch war
phi la
phila del
philadel phi
philadelphi a</w>
pa pa</w>
pa cking</w>
p y
o hi
na p</w>
mul ti
li ly</w>
lea k</w>
inter fere</w>
incredi bly</w>
ha mmer</w>
foo ls</w>
fer red</w>
ex hau
engin es</w>
ear ned</w>
disa ster</w>
der son</w>
comp en
cli ff</w>
clea red</w>
cha pter</w>
an ch
ver 's</w>
tran sport</w>
tor n</w>
threaten ing</w>
territ ory</w>
ter e
teen -
ta bles</w>
scu lly</w>
ra ts</w>
princi pal</w>
pri m
pla tes</w>
photograph s</w>
nor ma</w>
ne cessa
le op
lau rie</w>
l ton</w>
jo sie</w>
j ured</w>
in 's</w>
hit ler</w>
hallowe en</w>
gi b
fashi on</w>
far mer</w>
f en
enter ing</w>
ed gar</w>
du ll</w>
di ve</w>
di et</w>
dem and</w>
de le
da tes</w>
d rank</w>
custo dy</w>
cere mony</w>
c lou
bi shop</w>
be lle</w>
an es
wra p</w>
wor kers</w>
we ir</w>
te sted</w>
st ev
ran dom</w>
que st</w>
po em</w>
philli p</w>
negoti ate</w>
n i</w>
ma t</w>
la ting</w>
k or
ju dy</w>
in va
fle w</w>
ev al</w>
dete ctives</w>
cynthi a</w>
cur ren
crea tive</w>
cover s</w>
concer ns</w>
ba chel
when 's</w>
trou bles</w>
tra ve
tch ing</w>
sp in
sail ing</w>
s can</w>
rin gton</w>
resul ts</w>
qu ality</w>
pre vi
ph oned</w>
pene tra
lomb ard</w>
lo yal</w>
liber ty</w>
ha h</w>
grea ter</w>
fla sh</w>
fi elds</w>
expla ined</w>
dri ven</w>
colum n</w>
cla im
bu dd
bo mbs</w>
bal ti
an ony
a ids</w>
who 'll</w>
ur s</w>
to ss</w>
tit led</w>
star ving</w>
st en
si es</w>
ri d
re mark
r -
patro l</w>
pa ssion
op tions</w>
ohi o</w>
min g
k rin
k man</w>
juli et</w>
ho mes</w>
ha ll
ga la
ex tre
esc ort</w>
de 's</w>
con test</w>
con o
co m</w>
co -
clu bs</w>
car ri
ca ttle</w>
bu sting</w>
at ory</w>
affa irs</w>
1 3
yessi r</w>
wor ries</w>
vi an</w>
to wards</w>
terrori sts</w>
tan e
t ance</w>
sor ts</w>
shit ty</w>
ri g</w>
ra dar</w>
mon ey's</w>
leon ard</w>
le ment</w>
l ph</w>
indi a</w>
im pulse</w>
estab li
ess a</w>
de lay</w>
da ily</w>
cor le
com pared</w>
com a</w>
clin ic</w>
cla rice</w>
c ities</w>
c ca</w>
bro ther
be gun</w>
arran gements</w>
acti vity</w>
ac quain
19 8
wil son</w>
what cha</w>
wea rs</w>
tter ing</w>
to wn
to day's</w>
stri ctly</w>
sta tus</w>
samu el</w>
sa blanca</w>
rob in</w>
pur ple</w>
no ve
ne o</w>
ma gni
leg ally</w>
le bow
lan ding</w>
la test</w>
la p
jud gment</w>
it -
inter ro
high est</w>
hero es</w>
gi fts</w>
fa ction</w>
e nor
den tally</w>
de la
cro ssing</w>
crimin als</w>
chin a
ceme tery</w>
catho lic</w>
ca sablanca</w>
al ert</w>
were wolf</w>
we l</w>
tran spor
surve ill
surveill ance</w>
su zie</w>
sa bo
ru g</w>
ri co</w>
qui e
pri or</w>
po le</w>
pla yers</w>
naz i</w>
ma ll
ll is</w>
ld -
inte lle
in na</w>
ho mo
hand ling</w>
half way</w>
ga ther
for getting</w>
fe ds</w>
e cono
custo mer</w>
consequ ences</w>
close st</w>
cla sses</w>
civili zation</w>
chri stian</w>
can e</w>
blan ket</w>
ambu lance</w>
vi enna</w>
vi ck
uni que</w>
un fair</w>
ton 's</w>
techni cal</w>
stra te
sp rin
sp er</w>
sor ta</w>
sno w
scho ol
ro man</w>
rece ption</w>
ra ped</w>
ra ge</w>
po et</w>
oc to
neu tra
mo tive</w>
help ful</w>
hav in</w>
har bor</w>
h int</w>
gener ally</w>
extra ordinary</w>
ed itor</w>
ear th
deci sions</w>
crea sy</w>
be gging</w>
balti more</w>
anni versary</w>
after wards</w>
a- bitch</w>
wa sted</w>
ven ice</w>
van essa</w>
travel ing</w>
thu mb</w>
the a</w>
st even</w>
spea ks</w>
sho cked</w>
ru by</w>
ri o</w>
resi st</w>
r hy
qu is</w>
publi city</w>
po p
photo s</w>
op tion</w>
necessa rily</w>
mo ss</w>
lu ther</w>
leg end</w>
il 's</w>
hi ya</w>
hau l</w>
gui de</w>
gen tle</w>
fra n</w>
fli p</w>
fashi oned</w>
en vy</w>
dou ble-
dis play</w>
craw ford</w>
an drew</w>
und ers</w>
threa ten</w>
tere sa</w>
ta cti
sc ru
s cares</w>
recei ve</w>
presu me</w>
mu ck</w>
mo tor</w>
mc coy</w>
lo cks</w>
gra bbed</w>
experien ced</w>
doub ts</w>
di z</w>
di men
de man
cre ek</w>
cran e</w>
corle one</w>
conveni ent</w>
com pre
clo wn</w>
chea ted</w>
bri ef</w>
be lly</w>
bar ton</w>
a da
wi red</w>
wait ress</w>
wa gon</w>
w u
to bac
sa mmy</w>
sa fer</w>
s wore</w>
ri bb
r in</w>
pre vent</w>
person nel</w>
p o</w>
nor mally</w>
lebow ski</w>
la ser</w>
in her
her e
g han</w>
er a</w>
enti al</w>
di vision</w>
de cor
citi zens</w>
ci ans</w>
19 6
wyn ant</w>
two mb
to ms</w>
ti ger</w>
than k
superi or</w>
su sta
slu t</w>
privile ge</w>
prison ers</w>
mul der</w>
inten ded</w>
engine ering</w>
en titled</w>
eigh ty-
e c
d ges</w>
ce pt</w>
ber nie</w>
b led</w>
b ent</w>
ad ver
v '
tra u
te x</w>
sligh tly</w>
sin k</w>
sho w
refu sed</w>
re cent</w>
raz or</w>
pro position</w>
prim itive</w>
phe us</w>
pean ut</w>
p ear
ne tt</w>
mar quis</w>
la sz
l er's</w>
in jured</w>
hea rs</w>
happ ily</w>
gue ssed</w>
g gage</w>
en ted</w>
du ff</w>
docu ments</w>
determin ed</w>
dep end</w>
denti st</w>
de bor
debor ah</w>
da le</w>
ade le</w>
a tional</w>
wi zard</w>
wi cked</w>
u pper</w>
spo il</w>
smi ling</w>
skin ny</w>
se y
scre wing</w>
s qui
russi ans</w>
ro o</w>
ra ble</w>
pi c</w>
physi cs</w>
physi cally</w>
mar sha
k al
ja co
inv itation</w>
ho stage</w>
han k</w>
don nie</w>
dea ls</w>
de di
daugh ters</w>
con stitu
ci gar</w>
cher ry</w>
ce ll
can ada</w>
br a</w>
be ans</w>
as h</w>
x y</w>
whi stle</w>
whe els</w>
to ps</w>
su rd</w>
strai ghten
spo iled</w>
sor y</w>
sol ved</w>
so o
signifi cant</w>
shi re</w>
scu m
rio sity</w>
r ors</w>
prote cted</w>
po l
mor s</w>
mo mma</w>
le tte</w>
he sit
ha ck</w>
gradu ate</w>
gar s</w>
for k</w>
ev ol
e lla</w>
develo p</w>
dani els</w>
cu riosity</w>
con cei
ci als</w>
bur gh</w>
bo thers</w>
ama te
ve st</w>
va ge</w>
trans mission</w>
this 'll</w>
there 'd</w>
survi ved</w>
sacrifi ce</w>
s man</w>
run g</w>
promi ses</w>
possi bilities</w>
ni co
n ano
llu cin
la me</w>
kno x</w>
kin gs</w>
hor iz
head quarters</w>
harm less</w>
ha llucin
fi ghts</w>
er o
e e</w>
di se</w>
coa ch</w>
cla y
ch eat</w>
can non</w>
br o</w>
borro wed</w>
bi a</w>
ba ske
ye h</w>
wor lds</w>
to xi
su cked</w>
sto ck
spea re</w>
sno op
sma ller</w>
shake speare</w>
sh man</w>
pla yin</w>
pa per
na ta
mur ray</w>
mor pheus</w>
melan ie</w>
lew is</w>
leop ard</w>
hy p
gar den
flo ating</w>
ffi cient</w>
f loo
en e</w>
emo tions</w>
dri ves</w>
do ctor's</w>
di stress</w>
deli ber
d daya</w>
cla i
che kov</w>
bit ches</w>
bea n</w>
ar do</w>
we e</w>
wan dering</w>
tion 's</w>
so 's</w>
sa tan</w>
ro wan</w>
ra w</w>
pil gri
philoso phy</w>
pen is</w>
p als</w>
obse ssed</w>
mp les</w>
jo anna</w>
in e's</w>
hope less</w>
hook er</w>
hai ry</w>
gri p</w>
fo ley</w>
fi es</w>
fe eding</w>
emi ly</w>
develo ped</w>
daugh ter's</w>
da vi
d us</w>
co ward</w>
clo thing</w>
bu zz
b ron
2 1</w>
victori a</w>
v ities</w>
under cover</w>
tre vor</w>
tobac co</w>
su cking</w>
so -
smar ter</w>
sig n
si mu
safe ly</w>
ru mor</w>
ri dge</w>
re hear
mo s</w>
mi ght
mee tings</w>
malcol m</w>
liter ally</w>
li ons</w>
li me</w>
laugh ed</w>
lan ded</w>
kno cking</w>
in tru
i cs</w>
hun ch</w>
hosp it
ff 's</w>
de si
d u</w>
coo king</w>
condu ct</w>
co mic</w>
ber g</w>
b roo
att end</w>
alco hol</w>
air line</w>
adu lt</w>
wha les</w>
stitu te</w>
shu ttle</w>
seven th</w>
satis faction</w>
ray mond</w>
r ine</w>
ou ter</w>
my ers</w>
mm mmm</w>
mi ck</w>
list en
lin k</w>
je ffer
ha un
gre y</w>
go of
go al</w>
bur st</w>
bar ra
arran gement</w>
al ban
ab surd</w>
a th
wh ores</w>
vio lation</w>
vi vian</w>
ti eth</w>
ter ed</w>
sub way</w>
stru ggle</w>
stin ks</w>
si ster's</w>
shar ks</w>
sc hi
ro ads</w>
publi shed</w>
poin ting</w>
oper ator</w>
min ated</w>
ly de</w>
li vin</w>
la tin</w>
la plan
ki cking</w>
it em</w>
isra el</w>
in ner</w>
hi p</w>
ha mp
fried man</w>
el i</w>
eg y
di son</w>
conne ct</w>
ca bin
c ze
c ried</w>
c lyde</w>
bachel or</w>
ba pti
abu se</w>
you th</w>
x -
wa ters</w>
va ted</w>
u u
u ta
twenty- two</w>
tho mpson</w>
st y
sch ul
r ar
progra mmed</w>
presid ent's</w>
pi cks</w>
nea th</w>
na ive</w>
mon itor</w>
mee ts</w>
may a</w>
ma tri
ma the
laund ry</w>
jour nal</w>
instin ct</w>
hero in</w>
graphi c</w>
gg a</w>
fran ken
fi lling</w>
f i</w>
explo sion</w>
entertain ment</w>
de ss</w>
d wi
comp ound</w>
bu sh</w>
bri ck</w>
bit ter</w>
ba it</w>
assa ult</w>
apo logy</w>
an g
wis dom</w>
whi p</w>
wal t</w>
thir sty</w>
tax es</w>
suspe cted</w>
sk a
six th</w>
sh i</w>
sen ds</w>
sche me</w>
sa unders</w>
s have</w>
pa sses</w>
nee dn't</w>
na me
musc le</w>
mean while</w>
man ual</w>
list ed</w>
lasz lo</w>
lar ger</w>
la rs</w>
ju ris
in stant</w>
i sa
high ness</w>
gin ger</w>
fair ly</w>
fa ct
enga gement</w>
drow ned</w>
di shes</w>
da w
coordin ates</w>
con tr
car la</w>
car bon</w>
boo ze</w>
back wards</w>
app ly</w>
accu sed</w>
7 0</w>
writ es</w>
wa its</w>
stri kes</w>
stra in</w>
spe cta
ser ving</w>
rai sing</w>
pu ttin</w>
pla gue</w>
ner able</w>
ne ll</w>
mb ed</w>
mag gie</w>
lo vers</w>
k at</w>
inclu de</w>
hea vi
ff ing</w>
ex posed</w>
ex ag
exag ger
engine er</w>
elect ron
disappo int</w>
dama ged</w>
da y-
concer t</w>
con tribu
con gre
cir cle</w>
cha os</w>
ch et</w>
atta ched</w>
app les</w>
al u
ye ll</w>
uh- uh</w>
thri ll</w>
surr ounded</w>
stea m</w>
splen did</w>
should ers</w>
s win
ry in</w>
rever se</w>
ra cket</w>
pro pose</w>
par ked</w>
ni gga</w>
na po
men tary</w>
ly in</w>
lect er</w>
laplan te</w>
kne e</w>
k ko</w>
holl and</w>
h ound</w>
fi an
dire ctions</w>
de mon</w>
crea tor</w>
coun tr
classi c</w>
ci pa
char ity</w>
beli ef</w>
weal th</w>
vo y
va u
sher man</w>
regi ster</w>
produ cer</w>
naz is</w>
nar ci
mexi can</w>
main tain</w>
ma ssa
l ant</w>
ke l</w>
ka th
k ea
ir a</w>
ho stages</w>
gro w
gree dy</w>
gar rison</w>
frank 's</w>
fon d</w>
fa ther
em ba
e tt</w>
do o</w>
d' ar
cree ps</w>
costu me</w>
cor d</w>
chemi cal</w>
camer as</w>
be ings</w>
ba i
0 0
where 're</w>
ten -
tal ity</w>
speci fi
ri ot</w>
repor ters</w>
recogni zed</w>
re tri
re ment</w>
quie tly</w>
pi ll</w>
par as
o s
nur ses</w>
li ck</w>
l ts</w>
krin ge
kringe lein</w>
ja pan</w>
g ger
fami ly's</w>
fag got</w>
f abri
emplo yed</w>
de s
d' ya</w>
cor ri
con stru
coll ea
ca llin</w>
bur ke</w>
buck a
bi ke</w>
be la</w>
associ ate</w>
alterna tive</w>
wor ms</w>
we lls</w>
ty pes</w>
trans ferred</w>
to e</w>
ter rance</w>
swa mp</w>
sh re
sca l
ro lls</w>
ro lling</w>
ro cky</w>
pro posed</w>
previ ous</w>
pre mi
moni ca</w>
magaz ines</w>
lev ant</w>
le cture</w>
la y
ju di
jo dy</w>
i x</w>
foo led</w>
extre me</w>
excell ency</w>
eu ro
ef s</w>
dra matic</w>
distur ban
discu ssed</w>
dee ply</w>
contra cts</w>
bud get</w>
betra y</w>
b b</w>
advan ced</w>
a ha</w>
1 5
wa re
tra iler</w>
tan a</w>
ser vant</w>
ro ach</w>
questi oning</w>
pri mary</w>
pa ine</w>
nun s</w>
n ear
mor t
mor a
ma li
je wels</w>
indi ans</w>
i z</w>
fu ll-
fri da</w>
ear n</w>
dis cover</w>
di cta
defen sive</w>
dee per</w>
cour t
ble ed</w>
bin go</w>
ba ma</w>
assu ming</w>
wal kin</w>
vi et</w>
under neath</w>
twomb ley</w>
trea ty</w>
sh u</w>
sey mour</w>
sea ts</w>
se ssion</w>
ry n</w>
ro de</w>
rit a</w>
revolu tion</w>
reti re</w>
pur po
pu ff</w>
passion ate</w>
p g</w>
o be
nit ure</w>
ni cer</w>
min ate</w>
m is</w>
la mb</w>
kath ryn</w>
iti ous</w>
it ors</w>
infor med</w>
gra vity</w>
g lu
fur niture</w>
franken stein</w>
enor mous</w>
elect ro
do d
disci p
disappo intment</w>
dis po
di sor
demon s</w>
dan te</w>
communi cation</w>
clai ms</w>
child hood</w>
car los</w>
bra in
be loved</w>
willi am
wha le</w>
thea d</w>
temper ature</w>
ta gn
stor es</w>
spo tted</w>
sp it
son-of- a-bitch</w>
san tos</w>
roman ce</w>
re in
posse ssed</w>
pa ssage</w>
mp his</w>
mor gan</w>
mo lly</w>
mi gra
me mphis</w>
mau rice</w>
mani fe
mall ory</w>
magni fi
ma ted</w>
li fted</w>
le ck
kin g's</w>
k yle</w>
i- i-i</w>
ho p</w>
ha wa
gh ten</w>
gen tly</w>
ge sture</w>
fre derick</w>
du mb
dav is</w>
d'ar tagn
craw l</w>
com ment</w>
chi ps</w>
cha sed</w>
cau sing</w>
car pet</w>
c 's</w>
blu ff</w>
act ors</w>
vac y</w>
uta h</w>
tri c</w>
t up</w>
su pre
su m
sli de</w>
ron nie</w>
rin ging</w>
ribb on</w>
ra pi
ra oul</w>
psycho logy</w>
pri vacy</w>
pri me</w>
pi mp</w>
pea ceful</w>
mou se</w>
lo cated</w>
ku beli
it --
ho oked</w>
gr o</w>
gi a</w>
ga u
ga mble</w>
fo ol
fo g</w>
fi ction</w>
enter ed</w>
eigh t-
du m
da t</w>
da 's</w>
contr ary</w>
cock sucker</w>
co ffin</w>
bu ster</w>
brea sts</w>
body guard</w>
bar n</w>
atta cks</w>
ab or
wi pe</w>
tre ves</w>
te dly</w>
sil ver
sh in
ro ad
ri sts</w>
re ggie</w>
re fri
pu zz
na vi
mm y's</w>
mini mum</w>
lin d
juris diction</w>
ju no</w>
jo el</w>
ham burger</w>
for bi
excu ses</w>
electri c</w>
effe ctive</w>
cri mes</w>
cor n
conne ctions</w>
civili an</w>
blo wing</w>
an nu
a sh
y- boy</w>
wi res</w>
tra dition</w>
ten nis</w>
symbo l</w>
stu pi
straigh ten</w>
slee py</w>
se ba
seba stian</w>
se -
s mea
remark able</w>
r r
que er</w>
ok y</w>
mat the
mar tha</w>
in se
iden tity</w>
i vy</w>
ho tels</w>
ho st</w>
gro cer
fe ttes</w>
dis ks</w>
dis c</w>
d wayne</w>
concentra tion</w>
come dy</w>
com promise</w>
clo sely</w>
cap ture</w>
c ence</w>
be half</w>
be e</w>
ban dit</w>
back up</w>
ba tman</w>
answer ing</w>
ange ls</w>
wi llow</w>
wh ite
watch es</w>
ven kman</w>
v' ger</w>
under stands</w>
u c
trip p</w>
ss ment</w>
sc ha
s kill</w>
rey no
reyno lds</w>
re tar
psycho tic</w>
psycho logical</w>
pra ying</w>
pen ta
pe st</w>
pain ted</w>
op posed</w>
obse ssion</w>
o ts</w>
no --
might 've</w>
loo k
lon g-
ligh ten</w>
li zed</w>
li la</w>
la ho
je di</w>
j ay</w>
igno rant</w>
genu ine</w>
gene tic</w>
f fo
dra gged</w>
den i
d ary</w>
cre ed</w>
circu it</w>
can di
butt -
bur gers</w>
baske tball</w>
b be
appea l</w>
yo r
vo mit</w>
vio let</w>
swal lo
sp an
sla p</w>
she ep</w>
ru th</w>
ru iz</w>
reli able</w>
re turns</w>
re pa
ra m</w>
pre ssed</w>
occu pied</w>
mu d</w>
mon tana</w>
mon sters</w>
ma ran
la bor
kubeli k</w>
ki llin</w>
j on
immedi ate</w>
heaven s</w>
han a</w>
foo ling</w>
exhau sted</w>
er ror</w>
episo de</w>
ea th</w>
e cho</w>
dy lan</w>
deser ved</w>
descri ption</w>
depo sit</w>
d'artagn an</w>
compen sa
chick ens</w>
can yon</w>
bucka roo</w>
bor g</w>
bea rs</w>
au stra
assu med</w>
anony mous</w>
3 5</w>
tar ans
swe ep</w>
surpri ses</w>
sta ted</w>
sta b</w>
sho ve</w>
sh ri
sca m</w>
sc or
ri pper</w>
re cover</w>
patter ns</w>
ou tra
ne y's</w>
missi les</w>
ma tches</w>
k el
i um</w>
hu mans</w>
ho bb
gra phy</w>
fli ct</w>
e some</w>
dri ll</w>
diti onal</w>
ca s</w>
bu tch
al fred</w>
ab du
a like</w>
2 5
w ounds</w>
viol in</w>
v ors</w>
te ous</w>
tan ks</w>
super st
sun ny</w>
su spen
sti cking</w>
ste pped</w>
sta yin</w>
ro lled</w>
ro a
rela tions</w>
re sting</w>
profe ssion</w>
po o
over night</w>
offen ded</w>
nick el</w>
n ever
murder ers</w>
me yer</w>
ma dison</w>
liqu id</w>
leg iti
je cted</w>
indepen dent</w>
gan z</w>
ga g</w>
g loves</w>
fa thers</w>
fa cing</w>
expla ins</w>
environ ment</w>
dra ft</w>
differ ently</w>
di lla
custo ms</w>
co s</w>
char m</w>
can d
c un
bo ld</w>
ac ts</w>
un like</w>
u ce</w>
twenty- seven</w>
to to</w>
stin k</w>
sta mp</w>
squ id</w>
so m
so da</w>
sligh test</w>
sh a</w>
schwar tz</w>
schoo ls</w>
s se
reti rement</w>
re ll</w>
puni shed</w>
pu dding</w>
plan ts</w>
ous ness</w>
ok laho
nar row</w>
mac far
lev els</w>
le e
kri sten</w>
is lands</w>
investiga tor</w>
indu stry</w>
in i</w>
how dy</w>
go -
ga mb
fa x</w>
ed -up</w>
du mmy</w>
dre sser</w>
di ll
cti c</w>
confidenti al</w>
co ck</w>
ck o</w>
can adi
bu mp</w>
brea ker</w>
bo one</w>
all er
writ ers</w>
whadd ya</w>
to ol</w>
t ta
t sy</w>
su m</w>
photogra ph</w>
p itch</w>
oo o</w>
ner ship</w>
maran z
lun gs</w>
logi c</w>
lim ited</w>
la zy</w>
la 's</w>
ju ly</w>
infor m</w>
in tri
gu a</w>
gro ve</w>
god -
gan g
g led</w>
g gi
fun cti
fi led</w>
fa me</w>
f ans</w>
emplo yment</w>
ele ments</w>
dro ps</w>
difficu l
deliber ately</w>
cy ni
ci e</w>
centu ries</w>
bran don</w>
bran ch</w>
bra dy</w>
bit es</w>
ari ly</w>
an nette</w>
af fir
9 9</w>
1 6</w>
1 3</w>
z or
z ona</w>
ware house</w>
ty pical</w>
tra cked</w>
tr on</w>
to mb</w>
sa vings</w>
ro th
phe w</w>
par lor</w>
new s
na iled</w>
may o</w>
mad man</w>
ma il
li ze</w>
lea ther</w>
le land</w>
law suit</w>
ki p</w>
ken ny</w>
in ta
im press</w>
im po
hu sh</w>
hou ston</w>
ho o</w>
h es</w>
fa ts</w>
electri cal</w>
ele cted</w>
du g</w>
dea lt</w>
dam nit</w>
cu ts</w>
coa ts</w>
co l</w>
che ster</w>
ari zona</w>
ac id</w>
6 .
wit z</w>
wi ped</w>
ulti mate</w>
u m-
u h
sta tions</w>
st les</w>
st 's</w>
ski rt</w>
shel drake</w>
scu m</w>
s ch</w>
s burg</w>
reque sted</w>
regi stered</w>
r ounds</w>
pro bation</w>
poin ted</w>
pen gu
pa le</w>
p r
or dell</w>
mar vin</w>
ma fi
legiti mate</w>
kru eger</w>
k er's</w>
ja mmed</w>
interru pt</w>
institu te</w>
happi er</w>
fir es</w>
fa re
ex pose</w>
ever 's</w>
dra gging</w>
distur b</w>
de spi
d able</w>
conveni ence</w>
con sul
commission er</w>
co con
cho pped</w>
cabin et</w>
bu ff
b are</w>
ath le
assi stance</w>
19 9
y l</w>
vau ghan</w>
u hh</w>
tw ins</w>
tre mend
tremend ous</w>
to ma
tion ally</w>
ten se</w>
t less</w>
ssi p</w>
sa kes</w>
reli ef</w>
prose cu
po pe</w>
p ture</w>
p lot</w>
or a</w>
o ce
mu tual</w>
mu g</w>
mi lo</w>
m bi
lo w-
inten tions</w>
hol low</w>
hair cut</w>
gu y
go ssip</w>
g roo
fu r</w>
fre do</w>
fav ors</w>
fa g</w>
en for
emo tion</w>
dign ity</w>
de spite</w>
coun tries</w>
corpor ation</w>
convi ct</w>
con tent</w>
cir cus</w>
cap tured</w>
al ities</w>
addi son</w>
aban don</w>
symp toms</w>
swea ter</w>
ste phan
stab bed</w>
sou ls</w>
short ly</w>
se lina</w>
sa li
s cou
rebe cca</w>
radi o
r ho
pri ority</w>
por ch</w>
po ly
penta gon</w>
ow l</w>
off -
ni ggers</w>
metho ds</w>
magnifi cent</w>
ma tive</w>
ma sters</w>
lo tte</w>
la wn</w>
kni ghts</w>
ki ll
ir is</w>
i ze</w>
hon ored</w>
frank lin</w>
fran cs</w>
depre ssing</w>
de mi
cu e</w>
crow ded</w>
con te
con cea
compet ition</w>
colon y</w>
cho p</w>
cha mp</w>
ch 's</w>
bor ne</w>
bab y
aw k
ar gon</w>
analy sis</w>
an ing</w>
wi ld
v ere</w>
too ls</w>
ti le</w>
the ories</w>
tele gram</w>
spi der</w>
si ci
shoo tin</w>
sh hhh</w>
separ ated</w>
sandwi ches</w>
ris ks</w>
ri a</w>
rela tives</w>
re pla
pre cau
plan ted</w>
perfor med</w>
pe e
ol dest</w>
nata lie</w>
na tions</w>
n ard</w>
mil ton</w>
medi cation</w>
man eu
lu x
lor es</w>
li e
klin gon</w>
king dom</w>
jor dan</w>
it able</w>
gri ef</w>
grand pa</w>
ge ons</w>
fu s</w>
forbi dden</w>
fla ttered</w>
fin k</w>
expe dition</w>
emba ssy</w>
de bate</w>
dan cer</w>
d stone</w>
cro ok</w>
coun sel</w>
conta cts</w>
constan tly</w>
confi dent</w>
cin dy</w>
cal vin</w>
bo ards</w>
bi g-
bea rd</w>
author ities</w>
ali st</w>
ack now
a x</w>
a ster
2 00</w>
woo dy</w>
wheel er</w>
the irs</w>
t '
suffer ed</w>
sp ying</w>
sp ray</w>
sp in</w>
sou th
sme lled</w>
sit tin</w>
s nt</w>
ru b
ran dy</w>
quali fied</w>
oun ce</w>
nice ly</w>
ni e
ni c</w>
mo le</w>
mir rors</w>
mari a</w>
li mo</w>
in k</w>
homo sexual</w>
help less</w>
gi l
ga ther</w>
don ny</w>
di sh
deb t</w>
de sig
da ph
cra shed</w>
coo kie</w>
co pies</w>
ad orable</w>
8 0</w>
wh el
vali ant</w>
to ys</w>
tarans ky</w>
t ness</w>
st ling</w>
sedu ce</w>
scot tie</w>
sco op</w>
ru mors</w>
ro bb
relea sed</w>
regar ding</w>
refri ger
questi oned</w>
pu ke</w>
per fu
perfu me</w>
nu thin</w>
nine ty-
napo leon</w>
mo tor
men tally</w>
mb ly</w>
list s</w>
lin ess</w>
ki lo
ite ment</w>
investiga ting</w>
im pact</w>
i ce
gon s</w>
fi xing</w>
fa int</w>
ex po
dre sses</w>
disturban ce</w>
co des</w>
ca dilla
bu ffy</w>
bour ne</w>
bi an
bea ring</w>
alter ed</w>
ala bama</w>
absolu te</w>
a sian</w>
-- a</w>
yan kee</w>
week 's</w>
vo d
vod ka</w>
v able</w>
tu be</w>
st unt</w>
spi ce</w>
spa gh
sophi sti
sma sh</w>
sit ter</w>
sil k</w>
senti mental</w>
sau ce</w>
rela tive</w>
ra g</w>
pra yers</w>
pen cil</w>
p le
or al</w>
o hhh</w>
mer a</w>
me l</w>
man tan</w>
ma ster
in dy</w>
i --i</w>
gu in
g i</w>
f in</w>
don o
di ct</w>
dd a</w>
chi mera</w>
che ers</w>
cau ses</w>
ca vi
ca fe</w>
black mail</w>
belon ged</w>
amate ur</w>
aa a
3 rd</w>
west ley</w>
wal lace</w>
ver i
tw right</w>
tri u
tho s</w>
suspe cts</w>
supre me</w>
sta ir
sett lement</w>
scar ing</w>
rea r
re st
presen ts</w>
p us</w>
occu pa
nu mb
nove mber</w>
mi d-
macfar lane</w>
ma ti
investiga te</w>
gue ssing</w>
g le
g ha
frea ked</w>
finger prints</w>
faci lity</w>
exa mine</w>
dar n</w>
dan ced</w>
che er
candi date</w>
break down</w>
bo sses</w>
bla ming</w>
auto matic</w>
a mi
william son</w>
tra cy</w>
to w
suspici on</w>
stra w</w>
ski lls</w>
shit -
scen ari
re ha
ra tional</w>
pre t
por tra
pop corn</w>
po ckets</w>
pilgri m</w>
per form</w>
pe cu
pass enger</w>
para dise</w>
over -
o h
nie ce</w>
ne phew</w>
ne gro
musi cal</w>
mit ted</w>
min ation</w>
mi ss
men ted</w>
mea sure</w>
li an</w>
kin dly</w>
jose phine</w>
je ep</w>
is er</w>
ir o</w>
increa se</w>
imp li
illu sion</w>
hyster ical</w>
ho over</w>
hard ware</w>
ha tch</w>
gro ws</w>
gin s</w>
ga tes</w>
fu se</w>
fello ws</w>
fare well</w>
er -
eg on</w>
di um</w>
de ta
daph ne</w>
crea tion</w>
cran k</w>
cli mbing</w>
chemi stry</w>
cha irs</w>
cap it
be lla</w>
be ckett</w>
archite ct</w>
am ne
19 7
wor f</w>
tre ss</w>
th or</w>
techni cally</w>
stewar t</w>
spira tion</w>
sch muck</w>
sa mples</w>
reali stic</w>
phi lip</w>
par ent</w>
over whel
or bit</w>
ona ire</w>
nu t
ne gro</w>
me te
me ssy</w>
marsha l</w>
man -
lun g</w>
lu te</w>
k ry
ju ana</w>
in a</w>
imagin ed</w>
i sh</w>
hill yer</w>
he m</w>
good- looking</w>
g man</w>
for tress</w>
for mal</w>
fer gus</w>
eu gene</w>
er ie</w>
ea d</w>
dro me</w>
dri vin</w>
don na</w>
docu ment</w>
de man</w>
con firm</w>
co bb</w>
cadilla c</w>
bo tt
bo ot</w>
bea ten</w>
at tic</w>
an yone's</w>
al on
adver ti
valen tine</w>
ti mi
temp le</w>
te sting</w>
sto o
se ed</w>
resi stance</w>
requi re</w>
remo te</w>
r 's</w>
ph a</w>
or che
op h
oklaho ma</w>
occu r</w>
o me
ni cho
more 'n</w>
me dal</w>
me --
mani pu
mafi a</w>
lu c</w>
lo gue</w>
lip stick</w>
iti ons</w>
inte gr
integr ity</w>
in ches</w>
he ctor</w>
ha bits</w>
gabri el</w>
g len</w>
follo ws</w>
fin ance</w>
exc itement</w>
ea gle</w>
e ded</w>
do lores</w>
di ag
deser ves</w>
corri dor</w>
cavi ar</w>
ca thy</w>
bon ds</w>
awk ward</w>
au dition</w>
allo ws</w>
acti vities</w>
accu rate</w>
a p
4 8</w>
ye s--
win ston</w>
whi sper
vi cious</w>
trav is</w>
trav els</w>
to my</w>
th ru
t down</w>
rei lly</w>
purpo ses</w>
pro ves</w>
por ters</w>
organi zed</w>
on ally</w>
mor phine</w>
mean ing
mc ca
ma ssive</w>
ma cy</w>
lo sers</w>
light ning</w>
len s</w>
kea ton</w>
insul ted</w>
ing ly</w>
ho pes</w>
ho -
girl friends</w>
frighten ing</w>
fri es</w>
fle tch</w>
fil th</w>
ev o
el ena</w>
e tti</w>
drow ning</w>
dra wer</w>
di x
de ter
de fine</w>
cru ci
communi cate</w>
coll ins</w>
chan cell
cele br
ce cile</w>
bi scu
a ward</w>
a men</w>
vi sa</w>
va rious</w>
un able</w>
tra cking</w>
ti de</w>
swit ched</w>
swan n</w>
stan dar
standar ds</w>
smo ked</w>
sma shed</w>
se p
roth stein</w>
re min
qu ad
puni shment</w>
pu mping</w>
progra ms</w>
pit ts
ph ant</w>
per ce
oper ative</w>
nee ding</w>
moo kie</w>
mon o
mi cs</w>
max ie</w>
mar ti
ko ess
koess ler</w>
ki m</w>
insi sted</w>
ho bby</w>
f ter</w>
explo re</w>
exper ts</w>
ex or
eter nity</w>
equi pped</w>
en coura
dyna mite</w>
deci des</w>
com b</w>
bra vo</w>
ben eath</w>
be tting</w>
ato mic</w>
amm o</w>
watch in</w>
voy age</w>
tw n
tra gic</w>
te -
syn drome</w>
swan a</w>
stu dies</w>
spi ll</w>
see in</w>
se vere</w>
rememb ering</w>
refer ring</w>
re publi
re placed</w>
ran g</w>
p kins</w>
p ine</w>
o logy</w>
moun t</w>
ma les</w>
ma ck
ll y's</w>
leck tor</w>
la bel</w>
kin dness</w>
iraq is</w>
horiz on</w>
h ong</w>
gradu ated</w>
gra s
fur twn
fru stra
fire man</w>
far mers</w>
employe e</w>
eigh th</w>
dis co
da s</w>
cu b
cow boys</w>
co medi
cler k</w>
civili zed</w>
bo ws</w>
avoi ding</w>
authori zed</w>
as y
ac tions</w>
ab s
a hhh</w>
wi ch
va tions</w>
u gh</w>
to wel</w>
thera pi
so viet</w>
so le
sk a</w>
sabo tage</w>
roo t</w>
reli eved</w>
re fer</w>
re con
qu an
prin ted</w>
practi cing</w>
on --
ne ys</w>
me ss
mar ine</w>
lu thor</w>
lin ger
jaco b</w>
inti mi
ho ckey</w>
he els</w>
hawa ii</w>
han s</w>
h ence</w>
gn ition</w>
fa st
f oul</w>
expen se</w>
exce ption</w>
eri a</w>
er a
dev il's</w>
deli cious</w>
defin ite</w>
d- up</w>
co pper</w>
bro w
bo bo</w>
batt le
austri an</w>
at -
an dre
an cy</w>
za ck</w>
yi eld</w>
wit ty</w>
wi shed</w>
wi g
wheel chair</w>
up town</w>
two- hundred</w>
twi st</w>
twenty- eight</w>
tri cked</w>
terri fied</w>
sugge sting</w>
stor ed</w>
spir itual</w>
spagh etti</w>
sel le</w>
scot land</w>
responsi bilities</w>
represen ts</w>
represen ta
ren 's</w>
pre co
po well</w>
pi c
pan ties</w>
p ms</w>
o h--
mo ti
mini stry</w>
mar sh
li able</w>
lea vin</w>
kidna pping</w>
j i</w>
in come</w>
i i
hun ter</w>
goof y</w>
fe ller</w>
eri ca</w>
do dge</w>
des mond</w>
d son</w>
d ge
con do
commit ment</w>
ci gars</w>
bre eze</w>
boy d</w>
bloo m</w>
ble ssed</w>
batter ies</w>
ban i
ba ss</w>
b run
al pha</w>
al bum</w>
aggre ssive</w>
vul nerable</w>
the l</w>
tal es</w>
sugge sted</w>
sta mps</w>
st at</w>
some what</w>
so ta</w>
sheri ff's</w>
she lls</w>
s worn</w>
re union</w>
re en</w>
ra lph</w>
propo sal</w>
pro be</w>
pitts burgh</w>
pi er</w>
pat chett</w>
ow en</w>
ori al</w>
on ic</w>
off ers</w>
oa k</w>
nin th</w>
nar co
mm ers</w>
ma demo
mademo i
hy per
hu ll</w>
hor ny</w>
holl is</w>
har rington</w>
fra ud</w>
fi x
f ty</w>
exclu sive</w>
d ures</w>
d itch</w>
cro p</w>
confu sion</w>
con stant</w>
con flict</w>
clay ton</w>
ci dal</w>
chri sti
che z</w>
brief case</w>
boun ce</w>
bon us</w>
bla ke</w>
bar ba
back -up</w>
atta cking</w>
atlan tic</w>
any body's</w>
an d
al mighty</w>
y ar
wher es</w>
w rist</w>
tran sp
toxi c</w>
th us</w>
temp er</w>
sub stan
su ckers</w>
spe cu
so il</w>
sli ce</w>
sca rs</w>
relation ships</w>
rea dings</w>
ran som</w>
por no
ph in</w>
per pe
para de</w>
oper ational</w>
offi cially</w>
nu ke</w>
nano bot</w>
min ne
matri x</w>
maranz ano</w>
lo ads</w>
lev el
lea ders</w>
la tor</w>
kit ty</w>
je an-
infe cted</w>
im pro
gui dance</w>
gu it
gr ounds</w>
gib son</w>
fla sh
ex tin
e yed</w>
dri ver's</w>
conta cted</w>
comra des</w>
compani es</w>
cel er
canadi an</w>
ca sual</w>
ca ra
c use</w>
bal loon</w>
auto psy</w>
asy lum</w>
argu ing</w>
accompli shed</w>
a im
1 2
vit z</w>
va ult</w>
un g</w>
tin o</w>
thi eves</w>
sta che</w>
st rings</w>
si ves</w>
ro gers</w>
ren ted</w>
re turning</w>
ran gers</w>
psycho logist</w>
per cen
pe tty</w>
op ar
o liver</w>
o ld-
mck enna</w>
loa f</w>
je opar
in g's</w>
ill ness</w>
idi ots</w>
hu mp
gra titude</w>
god father</w>
ge kko</w>
explo sives</w>
enfor cement</w>
cu la</w>
cor on
contro lled</w>
confu sing</w>
che w</w>
c unt</w>
bur nt</w>
be ware</w>
barre l</w>
ba sket</w>
anes the
alco holi
abs ence</w>
4 7</w>
4 00</w>
wor ship</w>
un cle
torpe do</w>
t u</w>
straighten ed</w>
spo oky</w>
speci men</w>
shi thead</w>
ru dy</w>
reme mbers</w>
ran ger</w>
quit ting</w>
pu ppy</w>
popu lation</w>
po llu
pa ste</w>
offen sive</w>
na y</w>
mp tion</w>
min us</w>
mer 's</w>
mai den</w>
lu ggage</w>
li lly</w>
les lie</w>
import ance</w>
i --
go at</w>
gin o</w>
frea ks</w>
for ts</w>
flu sh</w>
fai thful</w>
f 's</w>
examin ed</w>
ele ment</w>
dro wn</w>
div ine</w>
discu ssing</w>
de x</w>
cro wn</w>
contro ls</w>
co in</w>
ck le</w>
china town</w>
car 's</w>
buzz ing</w>
bu cket</w>
be lls</w>
be ds</w>
ange lo</w>
alli son</w>
affir mative</w>
acce p
9 0</w>
wich ita</w>
w l</w>
w h</w>
visit ors</w>
tit ani
ti ous</w>
thro ws</w>
tea chers</w>
te ch</w>
tal ented</w>
ta 's</w>
sun set</w>
stephan ie</w>
schul z</w>
s ounding</w>
s lea
rin go</w>
re t
pu pi
pi card</w>
pen sion</w>
p rit
oun ge</w>
on i</w>
ni es</w>
mo llie</w>
mo dest</w>
mo ck</w>
mademoi selle</w>
m u</w>
m our
lan ter
ki cks</w>
j ona
instin cts</w>
hu stle</w>
har ry's</w>
hamp shire</w>
fo ssi
evo lu
eva cu
en try</w>
e my</w>
di al</w>
den ver</w>
day light</w>
d ner</w>
criti cal</w>
con dem
comp any
co on</w>
clou ds</w>
ci st</w>
chrissa kes</w>
be gged</w>
appro ve</w>
app et
ad rian</w>
aaaa aaaa
a ar
- la</w>
y y
x ima
vie ws</w>
v ou
t y's</w>
sub mit</w>
sub je
stu d</w>
st all</w>
squ ea
sin c
sinc ere</w>
sig nor</w>
ser ves</w>
sau r</w>
sa tions</w>
ro cket</w>
ri sing</w>
re d-
proce dures</w>
pp i</w>
perman ent</w>
pe t
ni x</w>
need le</w>
mora es</w>
minne sota</w>
mau reen</w>
man kind</w>
loa ding</w>
la dder</w>
k ore
iso lated</w>
inven tion</w>
inta ct</w>
grou ps</w>
gra ve
gra cious</w>
flo at</w>
exi sted</w>
eter nal</w>
equ al</w>
employe es</w>
ele phant</w>
ea stern</w>
e tte</w>
do l
dar ry
cub ans</w>
cru shed</w>
co ws</w>
cha p
cha l
ca pe</w>
c in</w>
butt ons</w>
bu bb
bea vis</w>
appro xima
a mber</w>
-- if</w>
whe w</w>
ven ess</w>
tu cky</w>
tion ary</w>
ti sh</w>
ther es</w>
th rough
termin al</w>
st oned</w>
st are</w>
st abi
snu ff</w>
sma ck</w>
sick ness</w>
rebe ls</w>
rabb its</w>
pu rely</w>
pi lots</w>
pecu liar</w>
or ing</w>
negro es</w>
mort gage</w>
ma xi
ma ma's</w>
li mb</w>
le tty</w>
ken tucky</w>
jo ining</w>
jacqu es</w>
is le</w>
interro gation</w>
home less</w>
ha il</w>
gh s</w>
furtwn gler</w>
fri ggin</w>
fi sh
explo de</w>
e ller</w>
e go</w>
disco very</w>
de position</w>
de cei
col a</w>
classi fied</w>
cla ws</w>
che wie</w>
ca su
blo ck
ar mor</w>
amne sia</w>
air plane</w>
ac celer
a par
wo men's</w>
wi ck
virtu e</w>
ver non</w>
tri be</w>
tha l</w>
sub tle</w>
stuff ed</w>
strea k</w>
snea king</w>
sear ched</w>
s light</w>
room mate</w>
ro mu
ra ted</w>
r itual</w>
qua id</w>
pic nic</w>
mu tant</w>
min es</w>
mi dd
mer ger</w>
mea ls</w>
mar gare
ma ps</w>
ma m</w>
ll y
le st</w>
la mar</w>
ke ts</w>
inter net</w>
guaran te
ff ed</w>
fa ctor</w>
execu ted</w>
ethi cs</w>
en -
dev ices</w>
decla re</w>
deb ts</w>
cur ed</w>
claim ed</w>
ck et
christ ine</w>
ch ro
cel lar</w>
bal con
any ways</w>
an tine</w>
aller gic</w>
abor tion</w>
3 8</w>
v ital</w>
un stable</w>
ty pe
thirty- seven</w>
the sis</w>
swin ging</w>
ste lla</w>
situ ations</w>
scan dal</w>
s wine</w>
rou s</w>
ro ber
ri sky</w>
re el</w>
r he
r er</w>
por no</w>
pain ful</w>
o le</w>
no stri
ni k</w>
nea rest</w>
mon s</w>
men t's</w>
may field</w>
max well</w>
mana gement</w>
ma tically</w>
ma ro
lu ck
le mon</w>
labor atory</w>
kur tz</w>
kir sty</w>
joh ns</w>
inter pre
in tu
identi fied</w>
house hold</w>
hal deman</w>
ha ts</w>
gree k</w>
fuck 's</w>
fi el
f man</w>
f lynn</w>
ex t</w>
ev alu
eri k</w>
er as
ef forts</w>
ed mun
ea tin</w>
e mma</w>
discip line</w>
dino sa
din ing</w>
destro ying</w>
da tions</w>
counter fe
con nie</w>
co oked</w>
co di
ca 's</w>
burgla ry</w>
bur t</w>
bur den</w>
ban ana</w>
ar s</w>
ar cade</w>
an g</w>
a we
4 th</w>
wra pped</w>
wig and</w>
what -
what '
weal thy</w>
w a</w>
v et</w>
un -
tor ch</w>
ton igh
tonigh t's</w>
thirty- six</w>
ten ts</w>
tan ts</w>
survi val</w>
str o</w>
str a</w>
sti cally</w>
ste p
star ship</w>
sh out</w>
se lls</w>
san ity</w>
sa ge</w>
ro y
ri ans</w>
ri al</w>
quar ter
proje cts</w>
prit chett</w>
por n</w>
pi lla
pal mer</w>
p ron
oo oh</w>
o th
mi chea
manu fact
make up</w>
m t</w>
le f
jun kie</w>
ju i
jer emy</w>
indu l
human ity</w>
hu g</w>
hea l</w>
he el</w>
haun ted</w>
han dy</w>
gu er
ger many</w>
fin ed</w>
fin ch</w>
er e
disc har
de cea
cru de</w>
che ck
certi fied</w>
cen cy</w>
car ni
c run
bo lt</w>
believ ing</w>
b ree</w>
atlan ta</w>
amb ition</w>
al ties</w>
ac s</w>
1 7
1 6
whadd a</w>
wa king</w>
up setting</w>
tou ches</w>
thri lled</w>
tain ed</w>
sur re
squ e</w>
sou thern</w>
sophisti cated</w>
scum bag</w>
sa ints</w>
recor ding</w>
re stri
positi vely</w>
pi ssing</w>
perver t</w>
per sons</w>
pea n</w>
occasi onally</w>
o wed</w>
mu te</w>
mu eller</w>
missi le</w>
mas sey</w>
mari e</w>
ma ze</w>
ma inten
mainten ance</w>
ma dele
lux u
lomb ardo</w>
lo gan</w>
li ghten
la dy's</w>
l sive</w>
intervie ws</w>
hur ri
hel m</w>
guit ar</w>
ga te
g gins</w>
experim ents</w>
euro pean</w>
em be
el se
du dley</w>
do -
di stant</w>
deni ed</w>
def eat</w>
de stru
de ed</w>
de e</w>
d yle</w>
d yin</w>
cze ch</w>
co zy</w>
chi lds</w>
cel et</w>
bra celet</w>
br y
bir die</w>
be tsy</w>
bai ley</w>
au to</w>
au dre
anna belle</w>
al pha
ag ers</w>
a a</w>
6. 7</w>
3 00</w>
wor shi
wel fare</w>
wea thers</w>
wall is</w>
un pleasant</w>
tru sting</w>
ti se</w>
thu mbs</w>
ta il
t sa</w>
sympa thy</w>
stev ens</w>
so le</w>
smo kes</w>
shar ed</w>
sen sors</w>
sen ses</w>
satis fy</w>
sa ble</w>
recei pt</w>
re sent</w>
psychiatri c</w>
promi sing</w>
poison ed</w>
perfe ction</w>
od le</w>
octo ber</w>
ob serve</w>
nu mer
mother fuckers</w>
mon keys</w>
milit ia</w>
me ssing</w>
mau de</w>
martin s</w>
mani ac</w>
ma ra
lo well</w>
linger ie</w>
len gth</w>
ja de</w>
j an</w>
i 's</w>
har vey</w>
go tcha</w>
ga mbling</w>
free way</w>
f ta</w>
examin ation</w>
ever '
du des</w>
dru m</w>
dri ft</w>
di zzy</w>
depen ding</w>
deli cate</w>
cou sins</w>
condu ctor</w>
comple ted</w>
celebra tion</w>
c bs</w>
bu ys</w>
ber ke
ba ker</w>
b ling</w>
auto graph</w>
arti cles</w>
andre ws</w>
3 0
za vitz</w>
z ers</w>
vin cen
vani shed</w>
va cu
un e</w>
u h--
stra te</w>
ste ering</w>
sp rings</w>
sophi e</w>
so x</w>
sna kes</w>
sin g
sar ge</w>
re store</w>
qu es</w>
pu mp
por k</w>
pa tr
or son</w>
o logical</w>
ne gli
ne gan</w>
milli onaire</w>
lu go
lit i
lea n</w>
l ent</w>
ka thy</w>
k au
jack 's</w>
il le</w>
hope fully</w>
hi de
goo ds</w>
glo bal</w>
fri ghten</w>
en id</w>
elo pe</w>
egy pt</w>
ea u</w>
du ffy</w>
don 's</w>
dispo sal</w>
dis ea
di ver
der ness</w>
de du
d t</w>
con way</w>
clu es</w>
cloa k</w>
cla ss
cin na
chron i
cho ke</w>
cho ir</w>
bu tcher</w>
bo oked</w>
ben ny</w>
balcon y</w>
awe some</w>
appet ite</w>
an gie</w>
amu sing</w>
-- it's</w>
wol ves</w>
vick i</w>
vi sual</w>
va tive</w>
u ser</w>
tra y</w>
ti gh
ten sion</w>
sur gi
sun light</w>
squ ir
spa ts</w>
sp lit
so lit
slaugh ter</w>
sho vel</w>
see king</w>
sand ra</w>
s pu
ru ining</w>
rea r</w>
re ssed</w>
pur sue</w>
predi ct</w>
pol is</w>
pen thouse</w>
paci fic</w>
pa d
oth o</w>
o hh</w>
missi ssi
missi ons</w>
ma tt
ma llo
ken dall</w>
ine a</w>
in spiration</w>
i ke</w>
hi ke</w>
heart beat</w>
gu inea</w>
gger ed</w>
gather ing</w>
fun ds</w>
flo wing</w>
ea bou
eabou ts</w>
du ties</w>
dra ma</w>
do t</w>
de ss
cu er
coun ted</w>
com mon
com b
cir cles</w>
cho pper</w>
che f</w>
ch i</w>
certifi cate</w>
catch es</w>
caro l</w>
ca te
bu r</w>
ben ef
ba ld</w>
ba cked</w>
apologi es</w>
admini stration</w>
ad mission</w>
8 00</w>
3 2</w>
wha ck</w>
wei gh</w>
wa ld</w>
ve ins</w>
tra ps</w>
town 's</w>
termin ate</w>
tea ms</w>
symp hon
swi ss</w>
smo key</w>
shar es</w>
san g</w>
s see</w>
ro ck
rev ea
re x
ra ins</w>
princi ple</w>
por ter</w>
pira tes</w>
perman ently</w>
pe ter
pa ce</w>
oa k
no ises</w>
n ev
mu mmy</w>
mole cular</w>
ma tics</w>
lon gest</w>
lon esome</w>
le gi
jo an</w>
j o</w>
inci dentally</w>
hook ers</w>
he ight</w>
greg ory</w>
gradu ation</w>
gra ms</w>
gra in</w>
glor ia</w>
ga be</w>
en zo</w>
en quir
e t's</w>
deli ghted</w>
dea dly</w>
cri pple</w>
cree py</w>
cre te</w>
cor a</w>
coo kies</w>
continu es</w>
con crete</w>
charact ers</w>
char ts</w>
ce iling</w>
cand les</w>
bru tal</w>
broad cast</w>
break -in</w>
boun ty</w>
associ ation</w>
anti cipa
an derson</w>
z u</w>
wa days</w>
vacu um</w>
twel ve-
transpor tation</w>
tomor ro
to ddy</w>
te er</w>
stor s</w>
ste ed</w>
shoo ter</w>
s sus</w>
s miles</w>
ru led</w>
ron ald</w>
rev eal</w>
ren e
re sign</w>
ra m
qu et</w>
pla t
pear ls</w>
paper work</w>
pa cks</w>
out post</w>
o ther's</w>
no wadays</w>
mon u
mmmm mmmm
mess enger</w>
mer cu
matthe w</w>
m y's</w>
lin er</w>
ligh ter</w>
li e's</w>
kno ts</w>
journa list</w>
jeffer son</w>
in fer
i ii</w>
hun ger</w>
hu ey</w>
ho liness</w>
hav en</w>
gy m</w>
gra des</w>
ge t
ga ined</w>
g room</w>
g g</w>
foo tage</w>
fa sci
expo sure</w>
exper tise</w>
du mp
dig ital</w>
d ine</w>
cri pp
chri sty</w>
cho o
chemi cals</w>
char t</w>
ch man</w>
car t</w>
batter y</w>
bar ber</w>
bab y's</w>
austra lia</w>
audre y</w>
admit ted</w>
accoun tant</w>
a man
5 5
19 5
1 st</w>
ze tte</w>
z im
vi ce-
ve ter
un expected</w>
u ary</w>
tt s</w>
to ssed</w>
therapi st</w>
stupi dity</w>
spee ches</w>
shan gri
shangri -la</w>
se less</w>
ro d
ren de
rende z
refu ses</w>
recommen ded</w>
questi on
pp e</w>
pay roll</w>
ni cole</w>
mon a</w>
margare t</w>
man chester</w>
m pe
lan do</w>
kry p
jan uary</w>
in som
im it
ha ss
ha fta</w>
ge ese</w>
for gi
fav our</w>
f lin
experi ences</w>
ever ett</w>
enga ge</w>
embarra ss</w>
ell i</w>
ed ith</w>
dev i
deter mine</w>
daw son</w>
consider ation</w>
compe tent</w>
co ok
che ek</w>
chan ning</w>
ce llu
camer on</w>
ca stor</w>
bri be</w>
bo re</w>
bian ca</w>
ben ch</w>
bee tho
ar ts</w>
ali ze</w>
a u</w>
a ts</w>
: 00</w>
-- this</w>
z il</w>
who op
wa kes</w>
w- w-
w right</w>
vo ir</w>
tun a</w>
trou sers</w>
tr o</w>
te lly</w>
ta sty</w>
ta ke
sta tion
sla pped</w>
sa d
s to</w>
ro ses</w>
respe ctable</w>
re vi
re l</w>
re ference</w>
ra d</w>
que ens</w>
pre scription</w>
parti cles</w>
parti al</w>
parano ia</w>
nor thern</w>
no ir</w>
n n</w>
mu stan
mole cu
mar ines</w>
magne tic</w>
magi cian</w>
ma ine</w>
lli es</w>
li c
jud gement</w>
ho lo
hel ms</w>
garden er</w>
gal vin</w>
g ori
fore head</w>
fle a</w>
fa de</w>
don ut</w>
do te</w>
do g's</w>
dix ie</w>
di cks</w>
decla red</w>
curren tly</w>
cuer vo</w>
cu ban</w>
con ser
con qu
comp are</w>
color ful</w>
chi e</w>
carri age</w>
ca d
c z
bi zar
benef its</w>
be ts</w>
be tcha</w>
ba i</w>
at a</w>
approxima tely</w>
approa ching</w>
ama zed</w>
acce s
a ging</w>
4 4</w>
x e</w>
who 're</w>
wer y</w>
visit or</w>
vi c</w>
va der</w>
v e's</w>
up side</w>
uni forms</w>
u ti
tur ing</w>
tou gh
temp t</w>
ta tions</w>
swea ting</w>
survi vors</w>
sur f
suppo se
super natural</w>
sun shine</w>
stru ggling</w>
spe lls</w>
sli m</w>
six ties</w>
sexu ally</w>
sea s</w>
scu l
sar a</w>
repor ting</w>
re pair</w>
pro ven</w>
pro spect</w>
pres su
prepar ing</w>
pregn ancy</w>
pre judi
persu ade</w>
per spe
origin ally</w>
nu ll</w>
nor ville</w>
ne ck
mou ths</w>
mm- hm</w>
main land</w>
madele ine</w>
lo ses</w>
le ia</w>
la mp</w>
inten se</w>
infe ction</w>
i deal</w>
hy dro
hurri cane</w>
hu mble</w>
go wn</w>
gi le</w>
fuck ing-
fla t
fin n</w>
fea ture</w>
fanta sies</w>
fabri c</w>
ea ster</w>
e o</w>
dwi ght</w>
du mper</w>
drin kin</w>
dor k</w>
do me
dire cted</w>
di an</w>
compla ints</w>
com passion</w>
child ren's</w>
ch ev
car go</w>
ca ter
bu ff</w>
bre ed</w>
br is</w>
be cker</w>
bal let</w>
b room</w>
b lea
b ers</w>
attra ction</w>
associ ates</w>
achi ev
ac cuse</w>
ac cent</w>
a ged</w>
a do</w>
z oo
win ds</w>
wa shing</w>
u hur
uhur a</w>
trea dstone</w>
tor rance</w>
ti ck</w>
ti ble</w>
thru sters</w>
terrori st</w>
te mber</w>
t ori
t earing</w>
strate gy</w>
ste pping</w>
spen cer</w>
sep tember</w>
se fton</w>
scho lar
s oun
ro pes</w>
respe cted</w>
rehear sal</w>
recor ded</w>
rece p
rea ders</w>
re k
re covered</w>
ra rely</w>
r or
qui cker</w>
pre y</w>
per si
pen it
p each</w>
narci ssus</w>
mo vin</w>
mi z</w>
me tro
mar t</w>
lli an</w>
level and</w>
lea p</w>
kur t</w>
kee pin</w>
inti mate</w>
int ent</w>
inno cence</w>
humili ated</w>
hh hh
heada ches</w>
go e
gli mp
ga tor</w>
fru it
frea king</w>
exce p
distri bu
dire ctors</w>
diag no
dea lers</w>
de plo
da sh</w>
da ge</w>
d war
cro oked</w>
cla ir</w>
circu lation</w>
ci ency</w>
ch um</w>
ce e</w>
c leveland</w>
bon apar
bi an</w>
berke ley</w>
aw right</w>
assassin ation</w>
arch y</w>
aman da</w>
abi lities</w>
a sia</w>
week ends</w>
wan da</w>
ur ing</w>
twenty- one</w>
tter y</w>
travel ed</w>
suspen ded</w>
sun rise</w>
st rung</w>
slee ps</w>
sh ining</w>
secur ed</w>
sa loon</w>
s lin
resid ence</w>
rendez vous</w>
reck less</w>
ra p</w>
ra ck</w>
pan thers</w>
or dering</w>
mon t
mit ri</w>
mis sus</w>
mee ks</w>
matt ress</w>
mari on</w>
li stic</w>
land lord</w>
lan g
ke ith</w>
ka tha
juli an</w>
jona than</w>
indu strial</w>
har ris</w>
har ri
gree tings</w>
gr ounded</w>
ga st</w>
frequ ency</w>
for ming</w>
for bid</w>
finger nails</w>
fa tal</w>
evolu tion</w>
en han
electri city</w>
du pli
dinosa urs</w>
difficul ty</w>
descri bed</w>
dd ling</w>
d' am
d'am our</w>
cru mmy</w>
cra cked</w>
clean er</w>
ck en</w>
celebr ity</w>
bro ads</w>
brea st</w>
ble ssing</w>
as pi
arro gant</w>
an tly</w>
amb rose</w>
alcoholi c</w>
a isle</w>
wh -
volunte ered</w>
v els</w>
twenty- six</w>
thor n</w>
ta pped</w>
t led</w>
su p</w>
stin king</w>
ste llo</w>
sta ti
spo ts</w>
spa in</w>
sh it's</w>
se t-up</w>
sc ored</w>
sand ro</w>
sa p</w>
sa l's</w>
s som</w>
s lit</w>
s lan
re infor
qu alities</w>
puni sh</w>
physi cian</w>
peri meter</w>
pen elope</w>
pani cked</w>
n ou
mon ia</w>
mira cles</w>
min e's</w>
michea l</w>
men to</w>
main ly</w>
lo ans</w>
liter ature</w>
la tes</w>
kidna p</w>
k yo</w>
k lin</w>
jun ction</w>
in fin
im be
il sa</w>
i' m-
hei ghts</w>
heavi ly</w>
ha y</w>
ha tch
grow th</w>
gri d</w>
forty- eight</w>
fortun ate</w>
fi cial</w>
fe tch</w>
f u</w>
f ears</w>
earth qua
disapp earing</w>
dino saur</w>
desper ately</w>
de cency</w>
dam one</w>
cru ise</w>
corn wallis</w>
cor respon
cor ne
con klin</w>
commer cials</w>
co stello</w>
clo wns</w>
cla us</w>
chi efs</w>
chancell or</w>
bor o</w>
ber ries</w>
back yard</w>
ba tes</w>
ba te
appro val</w>
anch or</w>
adu lts</w>
acquain tance</w>
acci dents</w>
ab sor
a hm</w>
2 7</w>
1 000</w>
-- in</w>
- out</w>
where 've</w>
vi bra
ur ge</w>
un ities</w>
tri ps</w>
thank s
techni que</w>
syl vani
star ve</w>
stan wy
spo ok</w>
snoop y</w>
shi pment</w>
rose bud</w>
ri ddle</w>
rep li
refle ct</w>
re treat</w>
re p</w>
pre ssing</w>
power ed</w>
photogra pher</w>
phan tom</w>
perfor ming</w>
ou ts</w>
my th</w>
musi cian</w>
mississi ppi</w>
mer ci
me th
me mber
materi als</w>
ma stur
ma gua</w>
loo kit</w>
logi cally</w>
li o</w>
li cked</w>
k on
k h
ju stin</w>
inv ent</w>
in stan
in fan
hear ted</w>
grocer y</w>
ga ining</w>
far ther</w>
fa z
edu ard</w>
dor is</w>
discre tion</w>
disapp ea
di ce</w>
dess ert</w>
def ea
dee pest</w>
de k</w>
de ca
cur tain</w>
chi l
camp us</w>
bri gh
bo l
b lun
b ition</w>
anno ying</w>
affe ction</w>
ad just</w>
4 2</w>
za k</w>
wit t</w>
whi sper</w>
wha cked</w>
warri ors</w>
wan der</w>
w la
virgin s</w>
vege table</w>
under study</w>
ti mer</w>
the me</w>
suppose dly</w>
subje cts</w>
spon tane
sp ra
so ze</w>
sli ck</w>
slaugh tered</w>
shoo ts</w>
shir ts</w>
shi p
se ssions</w>
schu y
san chez</w>
sa tional</w>
s wo
s pla
ri des</w>
rela tion</w>
provi ded</w>
pla inti
pha se</w>
ph oney</w>
perspe ctive</w>
pau l's</w>
organi c</w>
na tive</w>
mu ske
mm i</w>
misunder stood</w>
misunder standing</w>
me ts</w>
mas ks</w>
make -up</w>
ma dness</w>
lu cas</w>
love birds</w>
lo w
lo t's</w>
lin ked</w>
lin 's</w>
le stat</w>
kni ves</w>
ke en</w>
ju mp
ja me
invol ve</w>
har dy</w>
hand cu
ha milton</w>
geor gia</w>
gener ate</w>
ge sta
g e's</w>
fun dam
fra gile</w>
for mu
flo wn</w>
flo ors</w>
fla me</w>
eli jah</w>
dis coura
di m</w>
devo ted</w>
day- day</w>
d d</w>
cyni cal</w>
cu lt</w>
crea ting</w>
cra ck
cor pse</w>
convi ction</w>
conclu sion</w>
br it
book store</w>
attemp ted</w>
assu red</w>
anxi ety</w>
and- a-
and-a- half</w>
ado pted</w>
ac comp
a y
a pes</w>
-- we</w>
ye lled</w>
wy n</w>
what so
whatso ever</w>
well es</w>
war ran
van ity</w>
van cou
val et</w>
ur a</w>
under water</w>
un necessary</w>
ugh ty</w>
tri ple</w>
tra itor</w>
to p
thu si
threa ts</w>
te sy</w>
ta ped</w>
t t's</w>
sub po
su fficient</w>
spi es</w>
sha dows</w>
ret ard</w>
requi red</w>
quin ce</w>
princi ples</w>
predi ctable</w>
pier re</w>
part ments</w>
par aly
pa ins</w>
orche stra</w>
obli ged</w>
o' neil</w>
ly nette</w>
lo cals</w>
lar ity</w>
la ma</w>
kid do</w>
ka ye</w>
jo u</w>
jo ker</w>
is nt</w>
inve st</w>
instru ments</w>
indi cate</w>
in clin
im peri
gu r
grun e
gren del</w>
goe bbe
goebbe ls</w>
fuck ed-up</w>
fri dge</w>
fortun ately</w>
fi end</w>
fer rie</w>
en thusi
electron ic</w>
e ment</w>
depre ssion</w>
deliver ing</w>
dedi cated</w>
cour tesy</w>
com an
colle cting</w>
co operation</w>
cli p</w>
chi li</w>
ce ments</w>
ca the
ca stro</w>
c e's</w>
bra ss</w>
bra ces</w>
bour bon</w>
auth or</w>
au ction</w>
announ ce</w>
al together</w>
-- just</w>
' l</w>
y 'll</w>
water gate</w>
vin g
vi be</w>
tra n</w>
toler ate</w>
thor ough
th ed</w>
ten s</w>
teen a
teena ger</w>
ta b</w>
sprin g
sof a</w>
smar test</w>
si ber
shel don</w>
shar ing</w>
sha kes</w>
se tup</w>
se min
scenari o</w>
sa mple</w>
s' posed</w>
s nor
ru sty</w>
ro derick</w>
righ teous</w>
refer red</w>
pre ven
portra it</w>
por tion</w>
po ster</w>
po l</w>
phy llis</w>
philo sophi
pengu in</w>
pass eng
passeng ers</w>
pa so</w>
ou i</w>
op en
on ship</w>
o wn
o me</w>
na tives</w>
mi ke's</w>
mar la</w>
lu ci
lli on</w>
li us</w>
kau fman</w>
k les</w>
jon ah</w>
je ts</w>
in jury</w>
imbe cile</w>
im pe
igno rance</w>
honest y</w>
fo cu
fli r
f s</w>
ele an
ea ter</w>
dri vers</w>
dish on
dea ths</w>
darry l</w>
d roo
d is</w>
cti cut</w>
cro ss
countr y's</w>
conne cticut</w>
com pos
cli fton</w>
care less</w>
ca ps</w>
bren da</w>
boo st</w>
blon d</w>
be ers</w>
barra cks</w>
bar nett</w>
ari an</w>
ar se</w>
ad ren
ad ded</w>
acti vate</w>
4 0
- to-
we s
ver bal</w>
ven i
ven ge
thanks giving</w>
sylvani a</w>
swa n</w>
susta ined</w>
su t
sty les</w>
ster eo</w>
st y's</w>
spon sor</w>
sp reading</w>
sol o</w>
sno op</w>
sma shing</w>
sla ves</w>
sign als</w>
si ssy</w>
shu ff
retri eval</w>
rea ct</w>
re vol
radi ator</w>
ra e</w>
pro fits</w>
pret tier</w>
posse ss</w>
plan k</w>
pla za</w>
pi pes</w>
pi geon</w>
pen n
pa yin</w>
op timi
neutra l</w>
mi mi</w>
mer lin</w>
mar gie</w>
ly ssa</w>
lan don</w>
kore a</w>
ki lla
k na
jud ging</w>
ir responsible</w>
inva sion</w>
intri gu
in ting</w>
in ha
im mortal</w>
hun ters</w>
holi days</w>
histor ical</w>
hero ic</w>
her e--
ha irs</w>
gu lf</w>
go tha
gall ery</w>
gala xy</w>
faz eli</w>
estab lish</w>
era se</w>
e tor</w>
du chess</w>
drea d
do x</w>
disappea rance</w>
der man</w>
den tly</w>
de pri
cur tis</w>
cur sed</w>
con rad</w>
clo ses</w>
cla ri
chan nels</w>
ce lot</w>
can cel
buff al
buffal o</w>
bro ker</w>
beetho ven</w>
ba con</w>
assi st</w>
ar tie</w>
admi red</w>
a qu
a mend
1 50</w>
wla dek</w>
wha ddaya</w>
volunte er</w>
vehi cles</w>
v as</w>
tru sts</w>
trou bled</w>
trave lling</w>
tran sit</w>
tou rists</w>
to w</w>
thor wald</w>
thing --
tea u</w>
sto ol</w>
stewar dess</w>
star ks</w>
si l</w>
sha ck</w>
sh ops</w>
s so
robb ers</w>
ri ght
refriger ator</w>
re sig
ran ces</w>
publi sher</w>
pre ce
pin ned</w>
pi pe
organi ze</w>
opport unities</w>
no w's</w>
nin e-
mu ffin</w>
mor se</w>
mon it
min ent</w>
mi ll
mea sures</w>
maro on</w>
ma ce</w>
m --
lugo si</w>
loo mis</w>
know -
in ju
i ced</w>
hu m</w>
hi s-
hell er</w>
h 's</w>
gre g</w>
ge e
g rin
g gs</w>
fun ctions</w>
fe sti
far t</w>
fa king</w>
en counter</w>
e ddy</w>
dimen sion</w>
di e's</w>
deli ghtful</w>
cro codi
cos grove</w>
convi cted</w>
compli ments</w>
chan g</w>
car son</w>
ca sey</w>
c how</w>
bra zil</w>
bloo ded</w>
bla med</w>
bizar re</w>
bar tender</w>
ban ging</w>
bab y-
arti sts</w>
ar ab
an ton
alpha bet</w>
ali ens</w>
advi sed</w>
aar on</w>
7 5</w>
2 8</w>
zu zu</w>
x 's</w>
what 's-
war ming</w>
vo o
ver se</w>
un likely</w>
u -
tu ttle</w>
trin a</w>
tr and</w>
thea st</w>
ter ror</w>
ten th</w>
tal by</w>
ta ges</w>
t ful</w>
symphon y</w>
succe ed</w>
sub -
specifi cally</w>
sin cer
sici ly</w>
sho cking</w>
sha ft</w>
secre tly</w>
s para
ro bber</w>
rea ching</w>
re di</w>
re con</w>
ra t
pump kin</w>
pp ie</w>
pou ring</w>
por t
politi cian</w>
pi zz
pho en
phoen ix</w>
philli ppe</w>
percen tage</w>
pain tings</w>
p har
own ers</w>
or -
nor th
no v</w>
ne x
narco tics</w>
mi chi
michi gan</w>
lou is
les bian</w>
le ch
la i</w>
l ust</w>
l ounge</w>
k k
interru pting</w>
inter ference</w>
in significant</w>
identi fication</w>
ho t
har dest</w>
hand les</w>
gra ff</w>
glimp se</w>
gener ation</w>
forgi veness</w>
for given</w>
for en
fo ster</w>
fo ld</w>
fle tcher</w>
fl u</w>
f fin
embe zz
e in
dra pes</w>
dis respect</w>
dis pa
der ek</w>
compla int</w>
comedi an</w>
co x</w>
cin o</w>
bur n
bu rial</w>
bou lev
bla ir</w>
bi jou</w>
bi -
ber trand</w>
ban ner</w>
ba h</w>
ba ch</w>
b len
at ro
arri ving</w>
ar ou
appreci ation</w>
an dro
all en</w>
ali bi</w>
al 's</w>
acces sory</w>
' ly</w>
zi p</w>
wre stling</w>
wil derness</w>
whisper ing</w>
vo w</w>
vin ci</w>
vide os</w>
vancou ver</w>
va gue</w>
up tight</w>
uni corn</w>
tran sla
tra ditional</w>
tra ding</w>
tra ced</w>
tomorro w's</w>
through out</w>
the less</w>
te ller</w>
sur f</w>
suppor tive</w>
squ ar
speci alty</w>
spe ct
sol lo
so- called</w>
six ty-five</w>
sin gs</w>
si zed</w>
si r
sa yer</w>
sa x
ri ses</w>
ri chest</w>
recei ving</w>
rea ctor</w>
radi cal</w>
quin cy</w>
propo sing</w>
pri ests</w>
pota toes</w>
po d</w>
pau la</w>
o- o-
o tto</w>
no lan</w>
ne cks</w>
na ughty</w>
mustan g</w>
min ing</w>
mi st</w>
meta ph
me d
mar tial</w>
main frame</w>
laur en</w>
l end</w>
ki los</w>
key ser</w>
katha rine</w>
k ron
ja w</w>
issu ed</w>
imp lying</w>
im patient</w>
i- i-
hu t</w>
hel met</w>
ha -
gotha m</w>
ex pan
do se</w>
do s</w>
dis ru
di p</w>
dece mber</w>
convin cing</w>
confu se</w>
cli f
cla ssy</w>
c ity's</w>
bri ga
b iting</w>
au diti
aster o
asse ts</w>
ar a</w>
anti dote</w>
annu al</w>
alban ian</w>
adren al
a i</w>
a h-
wit ches</w>
whi sky</w>
whi pped</w>
what ever's</w>
vo ws</w>
visit ed</w>
uncle 's</w>
trans mit
tow ler</w>
ti ck
tea se</w>
t son</w>
sut phin</w>
stu b
st el
signifi can
shri mp</w>
scen es</w>
sal vy</w>
sa t
s my
rid dick</w>
resu me</w>
rek all</w>
reco very</w>
re sort</w>
re serve</w>
pre- n
pre-n up</w>
pre cin
par alle
pa geant</w>
p neu
or phan
opini ons</w>
op ed</w>
o ly
o live</w>
mo th</w>
micro wave</w>
mer chan
men s</w>
memor ial</w>
massa chu
mal function</w>
maj ority</w>
lon g's</w>
lo vey</w>
li bra
langu ages</w>
la sted</w>
k at
j in
inter ior</w>
inspe ction</w>
inf ant</w>
inclu ded</w>
im pul
i e's</w>
hyp no
hu stler</w>
hi ring</w>
hi ggins</w>
hard t</w>
har vest</w>
h n</w>
gover n
go 's</w>
gi es</w>
floo d</w>
fi sher</w>
exten sion</w>
ed ition</w>
ed 's</w>
ea ble</w>
di sco</w>
del mar</w>
d ys</w>
cro ss-
constitu tion</w>
congratu late</w>
compos er</w>
chee se
charact eri
ce dar</w>
car di
but ler</w>
bul jan
brea ch</w>
bor ate</w>
boar ding</w>
bea ches</w>
bb s</w>
bate man</w>
ban an
ar cher</w>
appli cation</w>
any thin</w>
am in</w>
ac ro
5 -
z ul
wind shield</w>
wea ry</w>
w ww</w>
un lock</w>
u ms</w>
tri dge</w>
tou gher</w>
there sa</w>
there 're</w>
than k-
ta mmy</w>
sti r
star d</w>
st un
soo ze</w>
slo an</w>
shor ter</w>
sal vation</w>
sal vage</w>
s u</w>
rema ining</w>
recei pts</w>
rea s
re sources</w>
ra tings</w>
ra 's</w>
pupp et</w>
publi shing</w>
promo ted</w>
pri ces</w>
pra yed</w>
po sing</w>
pea ches</w>
par ry</w>
paci fi
or gan</w>
occasi onal</w>
obser vation</w>
nor m</w>
mon g
min t</w>
min s</w>
meth od</w>
member ship</w>
mel vin</w>
me dit
ma ver
ki sses</w>
jo y
irre levant</w>
in je
in appropriate</w>
im prove</w>
im migra
hyp noti
humili ating</w>
hobb es</w>
guar ded</w>
gra m
glor ious</w>
gla des</w>
ge ek</w>
fli pped</w>
fi ance</w>
fascin ated</w>
f lun
exhi bit</w>
ev a</w>
er i</w>
entertain ing</w>
en lighten
en ey</w>
ear th's</w>
du h</w>
dou gh
domin o</w>
do ct
distin gui
dis grace</w>
di ss
de fe
cy clo
cou gh</w>
corpor al</w>
coo ler</w>
conclu sions</w>
con cu
com o</w>
colle en</w>
ca id</w>
bu tch</w>
bro dy</w>
bran dy</w>
bo x
blo w
ban ged</w>
bal d
ba stal
b in</w>
ar nie</w>
app leton</w>
amend ment</w>
affe ct</w>
ab ra
z nick</w>
wood en</w>
wind ham</w>
wher eabouts</w>
vo tes</w>
valu es</w>
tur ner</w>
trin ity</w>
ti res</w>
ti cking</w>
ter al</w>
su ffo
stri ct</w>
stra w
star ters</w>
sta shed</w>
so ck</w>
sid down</w>
shor ts</w>
sher ry</w>
sha de</w>
sh ep</w>
sen ten
scri pts</w>
s land</w>
ri pping</w>
ri pe</w>
retar ded</w>
rela ti
re surre
re gan</w>
produ cts</w>
pro vo
po tter</w>
plan ets</w>
pick in</w>
pha n</w>
pe pper</w>
pan ther</w>
pa use</w>
pa tho
p lun
p iti
or phan</w>
o y</w>
mm on</w>
mi chel
mi ce</w>
mer ce
me mo</w>
mar x</w>
mar shall</w>
mack el
mackel way</w>
lou der</w>
ll i</w>
la val</w>
la h</w>
ka stle</w>
ima ges</w>
im o</w>
hun tin</w>
horse man</w>
her bert</w>
hea led</w>
hand ful</w>
hair dresser</w>
greg or</w>
gesta po</w>
gan 's</w>
ga ston</w>
fro g</w>
forty- two</w>
enquir er</w>
en dor
dra cula</w>
dono van</w>
distin ctly</w>
disgu ise</w>
dia c</w>
delu sions</w>
dea rest</w>
d mitri</w>
cripp led</w>
cour ses</w>
cor ners</w>
commo dus</w>
collea gue</w>
civili ans</w>
chil dish</w>
ca sting</w>
ca ll
c' mere</w>
bron x</w>
broad way</w>
bo o</w>
ber ser
be hold</w>
ban king</w>
appro ved</w>
an dy's</w>
ac me</w>
ab les</w>
a piece</w>
x e
war ner</w>
volu me</w>
v ar
u tter
utter ly</w>
twen tieth</w>
tw in
trea su
tou chy</w>
to logist</w>
tis sue</w>
t- t-
t it</w>
syl via</w>
suspici ons</w>
super vi
sub scri
su lli
spar row</w>
smu gg
slee p
ski ing</w>
sha ving</w>
sh op
scholar ship</w>
sc he</w>
ru ins</w>
ri e
ri b</w>
rebe l</w>
radio active</w>
ra sh</w>
positi ons</w>
po ke</w>
pe ep</w>
pay ments</w>
pa ths</w>
nu is
nuis ance</w>
ni gel</w>
n ba</w>
mo du
mi llen
mea t
me w</w>
mar ker</w>
ma ting</w>
luxu ry</w>
lo ck
lle st</w>
lind sey</w>
leg it</w>
kin ky</w>
k on</w>
ju de</w>
jo b's</w>
jer ome</w>
j ab
inter fer
inspi red</w>
inqui ry</w>
identi cal</w>
hun ted</w>
grune mann</w>
gn ant</w>
fu sion</w>
foun tain</w>
f ou
expe cta
expecta tions</w>
en ri
else where</w>
edmun ds</w>
dun can</w>
du tch</w>
dow d</w>
din ner's</w>
dep th</w>
demon stration</w>
de lan
dd led</w>
ct ual</w>
cra shes</w>
cou p</w>
coo p</w>
colum bia</w>
champi onship</w>
cathe dra
car ryin</w>
ca two
bu mped</w>
bra t</w>
bott les</w>
bar k</w>
ban d
ba ked</w>
announ ced</w>
advi sor</w>
ad dressed</w>
7 th</w>
3 6</w>
- man</w>
z on</w>
y- y-
with draw</w>
wi sh
who 've</w>
wa ddaya</w>
vari ety</w>
under estimate</w>
tur n-
trau ma</w>
trans mit</w>
torpe does</w>
to kyo</w>
the ft</w>
tha tcher</w>
temp ted</w>
tat too</w>
ta ller</w>
swa y
surgi cal</w>
sur ge</w>
su mp
state ments</w>
st ability</w>
space craft</w>
sollo zzo</w>
so ber</w>
shit ting</w>
shel f</w>
scoo ter</w>
sch nei
sa ddle</w>
s way</w>
s n
romu lan</w>
revolu tionary</w>
reser vations</w>
ra mi
r m</w>
quan tum</w>
pu ss</w>
proto type</w>
pro stitute</w>
pota to</w>
pon d</w>
po cket
pneu monia</w>
pay check</w>
on ary</w>
obli ga
o' bri
nu m</w>
maver ick</w>
m- m-
m ant</w>
li king</w>
l y-
l ur
k han</w>
ir rit
hy dra
hor ns</w>
hat red</w>
han ding</w>
ge ly</w>
fil tra
fe li
far ms</w>
er nie</w>
en courage</w>
eli minate</w>
ele gant</w>
ea ger</w>
do 's</w>
di 's</w>
deton ation</w>
dea l's</w>
de cks</w>
danger ously</w>
dan ces</w>
criti c</w>
corne lius</w>
co war
clemen za</w>
cellu lar</w>
car lton</w>
car l's</w>
c ine
broo ke</w>
bren ner</w>
bre eding</w>
body 'd</w>
bit ten</w>
bea tin</w>
bar ney</w>
attra ct</w>
asse mbly</w>
ar eas</w>
app le
adrenal ine</w>
ad es</w>
a thos</w>
1 .
00 7</w>
-- he</w>
wea sel</w>
viet name
vietname se</w>
vice- president</w>
vi to</w>
vi go</w>
ver ing</w>
to m
to d</w>
the ore
ten ne
tenne ssee</w>
ta ya</w>
su san
su bur
stub born</w>
stanwy k</w>
sta kes</w>
sta in</w>
ski pped</w>
sk ye</w>
sal on</w>
resig nation</w>
reque sts</w>
rela xed</w>
regar dless</w>
rea ches</w>
re e
rar i</w>
r oun
pu mps</w>
prob 'ly</w>
pro pa
preci se</w>
pre serve</w>
pipe line</w>
paras ites</w>
pa sa
pa d</w>
out -
oly mpi
old- fashioned</w>
ne k
na sa</w>
musc les</w>
mother fucking</w>
mode ls</w>
mo mmy's</w>
medi um</w>
mechan ism</w>
maxi mum</w>
mar cia</w>
mail box</w>
ma m
lo dge</w>
lin gs</w>
li ver
len e</w>
lanter n</w>
kra uts</w>
kilo meters</w>
kh ru
jer ks</w>
jeopar di
instru ment</w>
insi ght</w>
in ser
in cen
husban ds</w>
hi la
her b</w>
gra ph
g w
fla tter</w>
et c</w>
dread ful</w>
do g
distur bing</w>
develo ping</w>
dete ct</w>
deman ds</w>
defin ition</w>
dar rell</w>
cour thouse</w>
consider ate</w>
compli cations</w>
co co
chu mp</w>
ch ant</w>
capit ol</w>
cad et</w>
c it
butt- head</w>
budd y-boy</w>
bo mb
bla des</w>
alban ia</w>
al la</w>
after -
accep table</w>
ac company</w>
a xe</w>
a le</w>
1 9</w>
-- or</w>
- and-
youn g
you ve</w>
wr in
wher eas</w>
voo doo</w>
vide o
univer sal</w>
ti o</w>
thr ust</w>
th read</w>
termin ator</w>
swit zer
super -
sti r</w>
star ck</w>
sp ear</w>
sin ska
sig ning</w>
sal va
s park</w>
s kins</w>
run ner</w>
roo ts</w>
ri gged</w>
regu lations</w>
regu la</w>
re se
que tte</w>
pro gre
prin ce
pin ch</w>
p ses</w>
or an</w>
o scar</w>
no tions</w>
myster ies</w>
multi ple</w>
mu ti
mor ed</w>
mong st</w>
mis placed</w>
lor d's</w>
lo west</w>
la yin</w>
kin caid</w>
ke es</w>
ju mbo</w>
itali ans</w>
ira q</w>
in ev
inev itable</w>
imp or
idi otic</w>
hi r
ha yes</w>
grun er</w>
gru sinska
go on</w>
gi de
fund ing</w>
foot steps</w>
fini shing</w>
fin er</w>
figh ters</w>
fe lon
ethi cal</w>
en chan
elean or</w>
el a</w>
disa gree</w>
differ ences</w>
dia be
di spen
democra tic</w>
defen dant</w>
crea tes</w>
cra zi
cra b
cos mo</w>
contain ment</w>
com pa
col on</w>
clemen tine</w>
camp bell</w>
ca s
ca ffe
bu shes</w>
bill y's</w>
bi x
be cky</w>
battle field</w>
associ ated</w>
an ti</w>
amb itious</w>
air -
ag it
acti vated</w>
acqui red</w>
acci dentally</w>
a mongst</w>
2 3</w>
-- what</w>
-- that's</w>
wre tched</w>
would nt</w>
wit s</w>
wil helm</w>
what 've</w>
web b</w>
we sley</w>
vir gi
val ry</w>
va lid</w>
und ressed</w>
twenty- three</w>
tun nels</w>
triu mph</w>
tre spa
thi c</w>
sulli van</w>
sub stance</w>
sten sland</w>
sta dium</w>
st rous</w>
sp ends</w>
sni ffing</w>
smea r</w>
sin king</w>
shor ty</w>
sheri ffs</w>
se gre
segre tti</w>
scoo by</w>
schedu led</w>
s days</w>
ro ll
rex roth</w>
restaur ants</w>
resid ent</w>
representa tive</w>
represen tation</w>
remo tely</w>
re pri
ra tched</w>
ra s</w>
r mph</w>
pur suit</w>
plat form</w>
piti ful</w>
pick up</w>
pe l</w>
par rish</w>
p reach</w>
o ven</w>
no te
nn nn
nex us</w>
mu m
mo ms</w>
micha els</w>
micha el's</w>
mi sses</w>
mc cord</w>
man sion</w>
ma tely</w>
lo b
li ve
le tt
kron os</w>
k u</w>
journa lism</w>
ir onic</w>
intelle ct</w>
indi cates</w>
hon orable</w>
home coming</w>
ho tter</w>
hea d's</w>
h en</w>
grave yard</w>
go ts</w>
gn ment</w>
g- d</w>
g ner</w>
functi oning</w>
fu g
fre ud</w>
for ma
fla re</w>
fla e
ffin s</w>
establi shed</w>
ed it
e din
dru m
dra in</w>
don '
deser ted</w>
den ying</w>
defen ding</w>
defea ted</w>
d ried</w>
counterfe it</w>
consi st
company 's</w>
colon i
co smi
cli mbed</w>
che wing</w>
ch ment</w>
car lotta</w>
c ease</w>
butt s</w>
bun dle</w>
bu gging</w>
bonapar te</w>
boa twright</w>
blo cked</w>
bar ren
b u</w>
atten ding</w>
as sed</w>
appli cations</w>
affe cted</w>
accu sing</w>
a shes</w>
z ira</w>
y en
wre cked</w>
will et</w>
wea ker</w>
war mer</w>
wa y's</w>
wa x</w>
un ition</w>
tur f</w>
thorough ly</w>
tho lo
tholo mew</w>
ta mper
syn di
sun k</w>
suggesti ons</w>
statu es</w>
stand in</w>
so d</w>
smu ggling</w>
sla ck</w>
shu tt
sca ttered</w>
s our</w>
s ling</w>
ru fus</w>
ror scha
reque sting</w>
repa irs</w>
re sts</w>
ra p
pu shy</w>
profession als</w>
pro ving</w>
preco gs</w>
pre da
pi llow</w>
philli ps</w>
pha sers</w>
pen tan
pan es</w>
p ta</w>
p ry</w>
ordin arily</w>
oni st</w>
off end</w>
od les</w>
nev ada</w>
n yah</w>
mor nings</w>
mb ry</w>
m po
m its</w>
liter ary</w>
li on
less ly</w>
la mb
la cking</w>
jas on's</w>
intimi date</w>
inter pol</w>
insul ting</w>
insom nia</w>
indi ana</w>
in filtra
imperi al</w>
he mor
har sh</w>
ha ting</w>
gui ded</w>
grea tness</w>
gla dly</w>
g ths</w>
fre el
figu ring</w>
fi li
fi er
fav our
far ra
exhi bition</w>
ee ee
doe snt</w>
dee med</w>
de par
de ll's</w>
de la</w>
cru sher</w>
court room</w>
cour ts</w>
corre ctly</w>
consci ousness</w>
condem ned</w>
chu ck
cho ps</w>
cha ses</w>
cathedra l</w>
cap tain
c et</w>
boulev ard</w>
bo b's</w>
basi l</w>
bar tholomew</w>
ba ts</w>
avoi ded</w>
athle tic</w>
arri ves</w>
analy st</w>
an t's</w>
amm unition</w>
allo wing</w>
al tar</w>
ado lf</w>
7 2</w>
6 9</w>
villa in</w>
u mmm</w>
tro op
tribu ne</w>
tra mp</w>
tou rist</w>
ti pped</w>
thir st</w>
thing 'll</w>
th on</w>
th ly</w>
terri fying</w>
ter nal</w>
temper a
t our
star tin</w>
ssion al</w>
sky wire</w>
si vely</w>
si onal</w>
shar i</w>
ser van
sen at
secon dary</w>
se nor</w>
sa di
rin g
ri ch
repla cement</w>
reli ant</w>
re sses</w>
ran ks</w>
pur ity</w>
publi sh</w>
pu b</w>
prote ctive</w>
plu mbing</w>
plea san
pi cket</w>
pe d
pasa den
pasaden a</w>
over ride</w>
out standing</w>
ori gin</w>
or ga
off s</w>
o'bri en</w>
o de
nicho las</w>
molecu les</w>
ming way</w>
mi um</w>
mari juana</w>
mani acs</w>
lle we
li ving
li llian</w>
l '
know --
ke st</w>
jo e's</w>
j en</w>
introdu ction</w>
inse ct</w>
ing ham</w>
imp lan
immigra tion</w>
hu go</w>
horse shit</w>
ho- jon</w>
hila rious</w>
head lines</w>
hard core</w>
happi est</w>
green leaf</w>
gra ves</w>
god dess</w>
go lly</w>
gi llis</w>
gi an</w>
g lit
fi ji</w>
ff le</w>
fer rari</w>
fasci st</w>
fa il
f lan
exor cism</w>
ex- husband</w>
ex tor
econo mic</w>
do cks</w>
disapp ears</w>
die ter</w>
destin ation</w>
cu ps</w>
cra te</w>
cra cker</w>
corru pt</w>
conditi oning</w>
concer ning</w>
compre hen
com pass</w>
cock tails</w>
chro mium</w>
char lie's</w>
car ing</w>
ca kes</w>
ca en</w>
bu lly</w>
bu la</w>
bo mbing</w>
bl end</w>
bi e's</w>
bed time</w>
beauti fully</w>
bea ms</w>
be es</w>
app re
an kle</w>
al lies</w>
a st
-- to</w>
you d</w>
war fare</w>
vio lated</w>
vi su
vi le</w>
va in</w>
un finished</w>
tri cky</w>
tran sa
titani c</w>
thou ghtful</w>
teen agers</w>
sympa thetic</w>
state 's</w>
sta g</w>
so lar</w>
sli pping</w>
sid ers</w>
sever ed</w>
ser a</w>
sen i
scou ts</w>
schuy ler</w>
s boro</w>
rest less</w>
regi on</w>
re minded</w>
ra fe</w>
r ye</w>
quad rant</w>
puzz le</w>
pur su
pro spe
pre p</w>
pp er
pen nies</w>
p or</w>
outra geous</w>
occupa tion</w>
obli gation</w>
o eu
oeu v
nur sing</w>
nun ez</w>
nostri l</w>
ni k
neck lace</w>
mun e</w>
mm in</w>
mini ature</w>
meaning less</w>
m' hm</w>
lu ca</w>
list er</w>
lea gues</w>
le aning</w>
kal en</w>
k y
k re
jo s</w>
intervie wed</w>
imit ate</w>
im mune</w>
i o</w>
hu tton</w>
hi cks</w>
ha ag
haag en</w>
gren ade</w>
gan gs</w>
gamb ler</w>
ga ard</w>
g love</w>
g ance</w>
fu zzy</w>
fu rious</w>
fea ther</w>
f ters</w>
f raid</w>
ex tent</w>
ed na</w>
e w</w>
e thel</w>
e lit
di sin
dead line</w>
cy ber
crab tree</w>
conser vative</w>
congre ss
comb ined</w>
colle cted</w>
claim ing</w>
chal k</w>
carni val</w>
c- c-
c line</w>
buljan off</w>
bo il</w>
blue star</w>
banan as</w>
archi e</w>
ar row</w>
appreci ated</w>
an d--
al ma</w>
air es</w>
admit ting</w>
ab ort</w>
a stron
a lo
zz i</w>
zo e</w>
z an
xx xx
xxxx x
xxxxx x</w>
when 'd</w>
wen dell</w>
wall paper</w>
virgi l</w>
vincen nes</w>
va le</w>
un predictable</w>
uh- oh</w>
type writer</w>
tur k</w>
tu ral</w>
tu ck</w>
tro oper</w>
ton ic</w>
to wers</w>
ti est</w>
there 've</w>
ta ted</w>
superst ition</w>
su ck
stri es</w>
st ments</w>
spara zza</w>
spa ir</w>
son -in-law</w>
sli me</w>
ske leton</w>
sig na
sha des</w>
ser y</w>
sequ ence</w>
sen sational</w>
satell ites</w>
sa tch</w>
ro w
ri zzo</w>
re levant</w>
quar antine</w>
produ ced</w>
pen alty</w>
no i
ni ck's</w>
mor als</w>
moo re</w>
merce des</w>
medi eval</w>
mck in
mar y's</w>
maneu ver</w>
ligh ting</w>
li b</w>
laugh in</w>
ka trina</w>
k op
jo ckey</w>
jea lousy</w>
ja ke's</w>
in in</w>
hospit ality</w>
hide ous</w>
haw kins</w>
hatch et</w>
gra pher</w>
gra d</w>
gon dor
gir on</w>
ge y</w>
ga me's</w>
foun dation</w>
fortun es</w>
fli rt</w>
fit ting</w>
fire men</w>
fi ling</w>
explor er</w>
exp and</w>
enter tain</w>
e ys</w>
dupli cate</w>
drea mer</w>
dev a
desi res</w>
decea sed</w>
de uce</w>
de spair</w>
de scen
de b</w>
cu late</w>
corru ption</w>
cor ny</w>
constru ct</w>
compani on</w>
colla p
cocon ut</w>
chea per</w>
char le
ch lor
cer 's</w>
cau lay</w>
car diac</w>
can dle</w>
can -
caffe ine</w>
bri de
bo at
bi c</w>
berser k</w>
bene dict</w>
ben 's</w>
bar ks</w>
ba cking</w>
ari sto
ar mit
app eared</w>
anesthe si
air craft</w>
afri can</w>
ad dition</w>
accomp lish</w>
ab stra
5 7</w>
-- i'm</w>
z i</w>
wa ving</w>
wa ger</w>
vis or</w>
treasu ry</w>
tran qui
tra ctor</w>
terr or
terror ism</w>
tea sing</w>
ta sted</w>
su zette</w>
stra y</w>
sti mu
spin al</w>
sp ort
shi pping</w>
sen sible</w>
scra p</w>
sc oun
sc ores</w>
s sh</w>
s 's</w>
ri din</w>
republi can</w>
ren o</w>
ren nie</w>
regre ts</w>
reco gnition</w>
rea ssi
re sen
re mark</w>
re lla</w>
re fre
re c
py rami
pun ks</w>
pun ched</w>
pri or
presid ential</w>
precin ct</w>
pre li
police men</w>
po king</w>
po int
plan -
pi geons</w>
philosophi cal</w>
phe no
penn sylvania</w>
pea ce
part nership</w>
pa wn</w>
p tic</w>
ow nership</w>
organi sm</w>
ob served</w>
ob s</w>
na sal</w>
mu le</w>
millen ni
mel tdown</w>
ma la
m sy</w>
m ity</w>
lu is</w>
ll ery</w>
li hood</w>
lett uce</w>
lea sh</w>
la z</w>
la dy
jessi e</w>
inclin ed</w>
i us</w>
i ster</w>
i sed</w>
humili ation</w>
ho t-
hit ch
hel ena</w>
hea ling</w>
he bre
happen in</w>
hall way</w>
guarante ed</w>
gu mp</w>
gri ssom</w>
go s</w>
gi ble</w>
gh et
gau ge</w>
g ory</w>
fun ni
fuck a</w>
forty- seven</w>
fin der's</w>
fami li
expla ining</w>
ex- wife</w>
equ als</w>
easi est</w>
e ti
dum best</w>
dru ms</w>
dill on</w>
despi se</w>
der ly</w>
depu ties</w>
den ial</w>
dea r
da h
cur ly</w>
cra z
cra bs</w>
compu lsive</w>
collea gues</w>
chick en
cha ined</w>
ce cil</w>
car toon</w>
camp er</w>
blun t</w>
barre tt</w>
bar red</w>
bar be
ba ke</w>
b- b-
b red</w>
auto matically</w>
atten ded</w>
ar ctic</w>
ar am
aram is</w>
app lied</w>
an der
an archy</w>
ala ska</w>
aim ing</w>
acquain ted</w>
acknow led
ac res</w>
4 3</w>
3 7</w>
- ass</w>
' s--
yo -
ya 'll</w>
wr ence</w>
we b</w>
wa ter's</w>
vit amin</w>
v or
un tie</w>
ul tra
u x</w>
twel f
twelf th</w>
tur n
tu ous</w>
ts ch</w>
tri ck
thr one</w>
tar gets</w>
ta way</w>
t et</w>
swe dish</w>
surpri sing</w>
succe eded</w>
substan tial</w>
subpo ena</w>
stran gest</w>
sto ve</w>
star board</w>
stal ling</w>
stal ker</w>
sor row</w>
sof t
smy the</w>
sk ating</w>
si gh
sea sons</w>
se ment</w>
schnei der</w>
san o
rorscha ch</w>
ri b
rei ben</w>
re pressed</w>
re jected</w>
ra ttle</w>
r ts</w>
pro sper
pri va
po ets</w>
pi sses</w>
per ry</w>
part ly</w>
p ins</w>
o v</w>
ni al</w>
ne gle
na g</w>
moo ds</w>
mon k</w>
mix er</w>
miss our
mi stress</w>
mention ing</w>
mechan ic</w>
mb ran
mb les</w>
m me
loo p</w>
lla rd</w>
li zer</w>
li fting</w>
le ffer
leffer ts</w>
la wrence</w>
k ross</w>
jer emi
jan itor</w>
j it
isa ac</w>
intrigu ing</w>
in tel</w>
in ey</w>
imp lant</w>
im per
i ch</w>
hundred- fifty</w>
hor mon
ho pkins</w>
ho a
he y
har per</w>
har med</w>
han ged</w>
han di
gw en</w>
gru ber</w>
gor do</w>
fla mes</w>
fier ce</w>
fian cee</w>
fe lson</w>
fe eds</w>
faci lities</w>
fa ul
f ences</w>
extor tion</w>
extin ct</w>
ex otic</w>
emplo y</w>
el ed</w>
econo my</w>
e- bye</w>
dri fting</w>
don al
domin i</w>
do lls</w>
discoura ged</w>
dia logue</w>
deta iled</w>
da ries</w>
cur ve</w>
cru cial</w>
credi bility</w>
cra cks</w>
concei vable</w>
con tempt</w>
cli ck</w>
cin der
cha u
cha i</w>
car men</w>
captain 's</w>
came lot</w>
ca sano
c rou
c ling</w>
by e-bye</w>
bun cha</w>
bi en</w>
be -
bar rier</w>
ban kru
ba ses</w>
ani um</w>
anes thetic</w>
ala mo</w>
ad ri
a z
2 6</w>
- down</w>
would n'
wa ge</w>
vi g</w>
tw in</w>
tter 'n</w>
tra je
traje ctory</w>
tr en
tor tured</w>
tor ah</w>
thi er</w>
the m's</w>
thank- you</w>
ten den
teen age</w>
t reason</w>
t 've</w>
susta in</w>
stock ings</w>
star tled</w>
slo b</w>
sk an
simp li
significan ce</w>
sho ok</w>
shit less</w>
shir ley</w>
se wer</w>
se da
scra pe</w>
scen ery</w>
san ctu
sanctu ary</w>
salva tore</w>
s 're</w>
ri cher</w>
represen ting</w>
ren ti
redu ced</w>
reason ably</w>
re form</w>
ran dall</w>
ra y's</w>
ra ving</w>
r ust</w>
prince ton</w>
pla to</w>
pen der
par d</w>
pa sta</w>
over time</w>
nu de</w>
nor ton</w>
no oo</w>
nice st</w>
near by</w>
mo di
min i-
milli e</w>
men tality</w>
master piece</w>
marti gan</w>
maje sty's</w>
ma gn
look out</w>
loo sen</w>
llo way</w>
llewe lyn</w>
lin ks</w>
li l</w>
len dar</w>
le m</w>
lap d</w>
la sts</w>
la sher</w>
kit ten</w>
killa ine</w>
jen kins</w>
initi ative</w>
in er</w>
i cally</w>
hun se
hand writing</w>
ham mond</w>
hall oran</w>
ha zard</w>
gra bs</w>
gide on</w>
ger ald</w>
gate way</w>
gar dner</w>
g ling</w>
fro st</w>
formu la</w>
for mation</w>
fla w</w>
fl yer</w>
fix in</w>
fit ted</w>
fi rear
f a</w>
establi shment</w>
environ mental</w>
enti ally</w>
ela borate</w>
edu cated</w>
e- mail</w>
e sco
e ffi
doo m</w>
disea ses</w>
discre et</w>
depen dable</w>
cur tains</w>
cu m</w>
cu ff</w>
cry in</w>
criti ci
cra ckers</w>
cow girls</w>
contin ent</w>
conte xt</w>
compa rison</w>
col son</w>
co ded</w>
cha ins</w>
ca vity</w>
ca t
ca lendar</w>
ca iro</w>
bu ttle</w>
bry n
boo tle
blo cking</w>
black ma
bi es</w>
bi aly
bialy stock</w>
bar n
appo inted</w>
app renti
apo llo</w>
alon g
al ger
air lock</w>
ad ven
a ah</w>
9 th</w>
ye a</w>
x- ray</w>
wr on
wor m
wood sboro</w>
witne ssed</w>
wi re
war den</w>
vit a
vita mins</w>
vi us</w>
un armed</w>
tt y's</w>
tt ler</w>
tooth brush</w>
to wels</w>
to l</w>
thu gs</w>
tho le</w>
te m</w>
ta up
t art</w>
super hero</w>
ste en</w>
star es</w>
sta tic</w>
sol ving</w>
sli ppers</w>
side walk</w>
shi fts</w>
sens iti
screa med</w>
ro ller</w>
ri ver
ri dden</w>
refer ences</w>
rea der</w>
re married</w>
ra ces</w>
r y-
quo ting</w>
psycho path</w>
psy ch</w>
proto col</w>
prospe cts</w>
produ ces</w>
pp les</w>
pos se</w>
po sit
plea d</w>
phan ts</w>
per mitted</w>
para chu
pa yo
p ounding</w>
over look</w>
ol sen</w>
o xi
o dd
nur sery</w>
no ooo</w>
nit ro
ne lson</w>
na than
mu th</w>
mour ning</w>
midd le-
mer edith</w>
me tt</w>
me tro</w>
may fair</w>
mas ry</w>
ma caulay</w>
lon negan</w>
le tter
le sions</w>
le man</w>
le ga
la sh</w>
ki ssin
ke y's</w>
kar a</w>
jud ges</w>
joy ce</w>
jas per</w>
j e</w>
invol vement</w>
intu ition</w>
inter course</w>
initi als</w>
hypo the
hu mper
hold in</w>
hea ly</w>
hau ser</w>
har mony</w>
gu lls</w>
geor gie</w>
gang ster</w>
fran ky</w>
fla ttering</w>
felon y</w>
fast est</w>
embarra ssment</w>
drea mt</w>
don e
do ve</w>
dis pu
dete cted</w>
delu sion</w>
cu ted</w>
cra cking</w>
confidenti ality</w>
con fron
char ms</w>
certain ty</w>
ca ssi
bri e
bra ce</w>
bo k</w>
ber gs</w>
b y-
armit age</w>
am use</w>
al titude</w>
accoun ted</w>
7 -
4 6</w>
worth while</w>
ver ge</w>
venge ance</w>
vege ta
u mb
to ons</w>
they 's</w>
ter re
te qu
tequ ila</w>
t ying</w>
switzer land</w>
swe eney</w>
swallo ws</w>
super visor</w>
sub stitute</w>
stra ps</w>
ssa l</w>
spi ke</w>
sp ine</w>
smo kin</w>
smi th's</w>
slu g</w>
sett s</w>
servan ts</w>
sel ena</w>
scoun dre
sa va
sa m's</w>
ro of
rit z</w>
respon ding</w>
respe cts</w>
ren ard</w>
regar ds</w>
redu ce</w>
rea d
re war
ra ft</w>
r hon
que en's</w>
pra gue</w>
politi cians</w>
po sters</w>
plan- r</w>
pati o</w>
no ted</w>
new com
neu ral</w>
negoti ating</w>
mu tants</w>
mo tto</w>
mo to</w>
millenni um</w>
massachu setts</w>
mar row</w>
mar lon</w>
mar ching</w>
m y-
m ously</w>
lin ing</w>
la yer</w>
l is</w>
ki ck
kel son</w>
k is</w>
jeremi ah</w>
je lly
je ans</w>
ja r</w>
ja eger</w>
infor mant</w>
indepen dence</w>
in sanity</w>
in ely</w>
imp lo
i red</w>
humili ate</w>
hu mp</w>
hu b
ho e</w>
hir sch</w>
hh hhh</w>
hav ent</w>
hand -
ham mer
h r
gu tter</w>
gru dge</w>
ger ry</w>
genu inely</w>
gabri elle</w>
g out</w>
g na
foot prints</w>
fi cations</w>
fe males</w>
f ounded</w>
experien cing</w>
esti mated</w>
er d</w>
enri que</w>
en dless</w>
e min
du mping</w>
door way</w>
dome stic</w>
di ge
del ta</w>
d n</w>
cun ning</w>
crun ch</w>
cru iser</w>
con or</w>
co ffins</w>
cla p</w>
ch eri
certifi cates</w>
catwo man</w>
came l</w>
ca sts</w>
ca pp
bow ler</w>
boun daries</w>
blood shed</w>
bit ching</w>
billi ons</w>
barren ger</w>
ba thing</w>
b lin</w>
assa ssin</w>
apple jack</w>
an te</w>
an ce
am oun
ali zed</w>
8 0
3 4</w>
-- that</w>
zo m
zom bie</w>
yon der</w>
y man</w>
y er
wonder in</w>
who le
whi stler</w>
what taya</w>
wh eat</w>
war dro
wardro be</w>
w ear
vick ie</w>
ver n</w>
v i</w>
v as
ur ban</w>
ur anium</w>
uni denti
unidenti fied</w>
un ks</w>
tur ki
tor 's</w>
to x
ti gers</w>
ti bet</w>
they re</w>
th less</w>
ter ing</w>
te ss</w>
tar ge
tacti cs</w>
tacti cal</w>
ta lia</w>
t ear
stro ll</w>
ste er</w>
stal king</w>
si p</w>
shor tage</w>
sha ped</w>
sco pic</w>
s ville</w>
ru m
roa ches</w>
ro bbing</w>
refle ction</w>
red neck</w>
re marks</w>
pur chase</w>
pupp e
preli min
pra etor</w>
pp ings</w>
pp a</w>
post card</w>
por ts</w>
poe ms</w>
po ts</w>
po st-
po or
perce ption</w>
pentan ge
pay day</w>
p rank</w>
orga sm</w>
o logist</w>
noti fied</w>
no ds</w>
nico let</w>
new t</w>
ne llie</w>
mun ch
mum ford</w>
missour i</w>
men ace</w>
me lt</w>
mallo y</w>
ma ssage</w>
logi sts</w>
le mma</w>
kar la</w>
jui cy</w>
ju are
juare z</w>
john 's</w>
inve sted</w>
inter face</w>
inf o</w>
increa sed</w>
im proved</w>
hypo cr
hypocr ite</w>
hun k</w>
hun h</w>
hh hhhh</w>
hear st</w>
hea p</w>
hass le</w>
half- a-
ha mas</w>
groo vy</w>
ge -
frustra ted</w>
favour ite</w>
fa ce
evol ved</w>
et z
es ther</w>
er op
en tation</w>
dru g
distra cting</w>
dis k</w>
di lemma</w>
der ship</w>
democra ts</w>
demi lle</w>
de cker</w>
dar ned</w>
curren cy</w>
crow ds</w>
cran es</w>
cor ner
conqu er</w>
conne cts</w>
con sent</w>
compe te</w>
commer ce</w>
cla w</w>
ck le
cinder ella</w>
chur chill</w>
ce lled</w>
catch er</w>
car din
bun dy</w>
bu stin</w>
bra kes</w>
biscu its</w>
betra yal</w>
barra ck</w>
arri val</w>
ang lo</w>
an ten
allo wan
ad ds</w>
acknow ledge</w>
accoun ting</w>
a- goin</w>
a tom</w>
a te
2 000</w>
-- you're</w>
-- how</w>
zo mbi
z en
z el</w>
you- you</w>
ya le</w>
ya ku
wol fi</w>
wis con
wi ck</w>
vi al</w>
va ti
tu cker</w>
tro pical</w>
tr es</w>
tou rs</w>
to wns</w>
ti dy</w>
ti a</w>
thi gh</w>
tha r</w>
th under
testi fied</w>
termin ated</w>
tch up</w>
ta sting</w>
ta ker</w>
stu mbled</w>
stron gly</w>
steph ens</w>
squ irre
sper m</w>
speci mens</w>
sna pped</w>
sla sh</w>
sk unk</w>
schu mann</w>
ru shed</w>
rin ger</w>
richar ds</w>
revea led</w>
repea ting</w>
re z</w>
re phrase</w>
re pay</w>
ra cing</w>
ra c
pupp ies</w>
pupi ls</w>
produ ctive</w>
precau tions</w>
pre mature</w>
play boy</w>
p tive</w>
ow a</w>
org ans</w>
op le</w>
nik ki</w>
neuro tic</w>
negoti ation</w>
mo m
min ima
min dless</w>
mi a</w>
mel on</w>
mb lers</w>
mathe matics</w>
marri ages</w>
man ly</w>
mad martigan</w>
mach in
ma ttered</w>
ma ids</w>
lo tsa</w>
lo thar</w>
lin den
ligh thouse</w>
lea se</w>
le thal</w>
kin g-
ke tchup</w>
k ley</w>
ita in</w>
it ations</w>
iso lation</w>
inv iting</w>
inv itations</w>
indi cted</w>
in ject</w>
imagin ing</w>
how 'm</w>
ho ax</w>
hi des</w>
hi ck</w>
hav ana</w>
h end</w>
grusinska ya</w>
gras sho
good- by</w>
gal bra
galbra ith</w>
frea ky</w>
flo p</w>
festi val</w>
fea thers</w>
fa tu
experim ental</w>
eng li
emplo yer</w>
emer ald</w>
em press</w>
ein stein</w>
ec cen
e y-
e ject</w>
doo med</w>
distra ction</w>
dischar ge</w>
disapp ro
de fi
contra ctor</w>
confir mation</w>
communi sts</w>
coco a</w>
co cky</w>
chroni cle</w>
chee ks</w>
car nation</w>
cancel ed</w>
ca stles</w>
ca mps</w>
brother -in-law</w>
br itain</w>
bea sts</w>
bath tub</w>
bar z
bab es</w>
ba t
attemp ting</w>
arro way</w>
ar ma
ar k</w>
approa ches</w>
al a</w>
achi eve</w>
zul u</w>
z oph
zoph ren
work shop</w>
wor ley</w>
wi g</w>
why 're</w>
wha ti
whati ya</w>
wh ites</w>
wa cko</w>
ver sus</w>
ver ona</w>
v id</w>
tru st
to pic</w>
terre strial</w>
taup in</w>
ta pe
sympa thi
sugge sts</w>
stra p</w>
spo on</w>
spo oked</w>
sp ers</w>
sp an</w>
shou ting</w>
short -
sea mus</w>
se me
se ller</w>
schi zophren
sand man</w>
sail ors</w>
sa w
sa dly</w>
ro ts</w>
ro sa</w>
righ t-
restra ints</w>
re lu
re consider</w>
ra gs</w>
quar tet</w>
quali fy</w>
prote in</w>
propa gan
produ cing</w>
pro test</w>
pro s</w>
presen ted</w>
pp ies</w>
po sted</w>
po lo</w>
plea ses</w>
pin ta</w>
pender gast</w>
ped ro</w>
pe e-
pa le
p- p-
over heard</w>
obe di
noti ces</w>
night club</w>
nick name</w>
nek hor
n y-
mu ddy</w>
more over</w>
moon light</w>
michel le</w>
mi lle</w>
mi g</w>
mi dge</w>
mer it</w>
mel ted</w>
mar se
maj ors</w>
mach o</w>
ma mma</w>
lev i</w>
lea ks</w>
la ys</w>
kin i</w>
ju mps</w>
jim my's</w>
j ig
invol ving</w>
instan tly</w>
insi sts</w>
ill es</w>
igno red</w>
homi cidal</w>
ho op</w>
heaven 's</w>
he mingway</w>
hard- on</w>
hara ssment</w>
ha st</w>
h ors</w>
grea se</w>
gre er</w>
gh ead</w>
fundam en
fre ely</w>
for cing</w>
fli ghts</w>
fle xi
fe e
fa iling</w>
explo sive</w>
ess ence</w>
en dure</w>
en dea
ele phants</w>
dre x
dra ws</w>
do or's</w>
dea th's</w>
dea lin</w>
de pos
de cade</w>
da ta
d' oeuv
cu ttin</w>
could nt</w>
coo ling</w>
concei ve</w>
con ner</w>
cocon uts</w>
co haagen</w>
cinna ti</w>
cin cinnati</w>
child 's</w>
charle ston</w>
celebra ting</w>
calcu lated</w>
c d</w>
butter fly</w>
bri ll</w>
bon te
bo mbed</w>
bo bb
blu e-
blo win</w>
bio logical</w>
bi g
ban ned</w>
ball room</w>
austri a</w>
assi stan
arti stic</w>
ar too</w>
ar a
announ cement</w>
ange la</w>
ana tomy</w>
an ced</w>
alar ms</w>
al i</w>
al ed</w>
achi eved</w>
ac commo
9 00</w>
-- my</w>
-- it</w>
win ch</w>
will ya</w>
wi lt</w>
whit ney</w>
vul gar</w>
vo ca
van der
val s</w>
val ent</w>
u gar
ti mmy</w>
thin k's</w>
th il
thil da</w>
th fully</w>
territ ories</w>
ten tion</w>
tempor arily</w>
tat ta
ta ping</w>
stuff 's</w>
stri king</w>
stre tched</w>
sti on</w>
ste no
star ved</w>
spo o
spit z</w>
sou ven
sor did</w>
so vie
so be
slo wer</w>
ski es</w>
sincer ely</w>
simu lation</w>
simp son</w>
sh ville</w>
sexu ality</w>
secon d-
screw y</w>
san k</w>
sa ves</w>
sa b
s sors</w>
s p</w>
ru der</w>
ru bbed</w>
rosa to</w>
ro ss
ro ast</w>
ri vi
ren e</w>
reli eve</w>
recru ited</w>
re stored</w>
ra ve
ra ult</w>
ra tt
preten ded</w>
pre scott</w>
port land</w>
po mp
pisto ls</w>
phar ma
pha ser</w>
pea sant</w>
pe ed</w>
pe ck</w>
pain ter</w>
on o
na shville</w>
mor es</w>
mo i</w>
milli on
mexi cans</w>
me -
mari o</w>
man n's</w>
ma thilda</w>
ma hara
lo vin</w>
ll es</w>
lei gh</w>
le en</w>
laugh ter</w>
la zar
la sting</w>
kryp ton</w>
k ling</w>
iraq i</w>
ir ony</w>
in sides</w>
in fla
im men
hi ps</w>
hesit ate</w>
here by</w>
har t
han gin</w>
hai red</w>
ha cker</w>
guar dian</w>
gri ev
green e</w>
gi ous</w>
gi fted</w>
ghet to</w>
g ab
fun er
fre e-
for d's</w>
focu sed</w>
finger ed</w>
ff ers</w>
f lyin</w>
f lea
expe cts</w>
evacu ate</w>
en tra
em mett</w>
el bows</w>
do zens</w>
disc ount</w>
dill in
cur few</w>
cul tural</w>
coun ci
cosmi c</w>
continu ing</w>
condu cted</w>
concea l</w>
con tain</w>
compensa te</w>
commit te
clo th</w>
clea ring</w>
cha ser</w>
cau tion</w>
car ries</w>
car lo</w>
can o
cali ber</w>
ca swell</w>
ca ddy</w>
bu gged</w>
brie fly</w>
bra d
bour geo
body 'll</w>
ben nett</w>
be mbry</w>
ban k
b ber
as pe
alterna te</w>
allo y</w>
all 's</w>
admi ssions</w>
ada ms</w>
a ries</w>
a grees</w>
8 5</w>
7 9</w>
3 9</w>
3 1</w>
yan kees</w>
wood ward</w>
won ders</w>
wi ring</w>
whi z</w>
war ped</w>
wa d</w>
w inter
vi sta</w>
vel ing</w>
val lens</w>
under stand
un ite</w>
umb rella</w>
tw ea
to ad</w>
ter a</w>
tamper ing</w>
ta hoe</w>
swee ter</w>
sway zak</w>
swallo wed</w>
swa t</w>
suppo sing</w>
sub s</w>
ster ing</w>
soft ware</w>
so line</w>
sna tch</w>
slo wing</w>
slee per</w>
sing le-
si mul
simul tane
si ls</w>
shot guns</w>
sh ead</w>
se iz
s ition</w>
ry an's</w>
ris king</w>
rin ge</w>
rhe ya</w>
reali zes</w>
re ve
re public</w>
radi us</w>
ra il</w>
prose cute</w>
por tal</w>
poo ch</w>
point less</w>
po ster
pi a</w>
person 's</w>
peop le
penetra tion</w>
pe y</w>
pe ts</w>
pe tro
pe p
pe a</w>
patr oni
pan el</w>
pa la
pa 's</w>
p one</w>
oo ze</w>
oak land</w>
o' higgins</w>
nor bert</w>
no ses</w>
no bility</w>
never theless</w>
narci ssi
na ise</w>
na 's</w>
mu sh</w>
mp et</w>
motor cycle</w>
mother shead</w>
mor ality</w>
moo dy</w>
mm m
men u</w>
mechan ical</w>
marsh 's</w>
mar co</w>
machin ery</w>
ma tched</w>
ma st</w>
ma ss
lu c
ll en</w>
lin g
life boat</w>
li est</w>
len a</w>
le gen
lar gest</w>
la x</w>
ko ba
kit tridge</w>
ja mas</w>
ja cked</w>
it arian</w>
inte gra
inclu des</w>
im pa
illu sions</w>
hud sucker</w>
he im</w>
ham let</w>
ha re</w>
gro wn
gras p</w>
grand parents</w>
grand children</w>
gh y</w>
gh ou
gener ator</w>
ga ye</w>
ga soline</w>
freel ance</w>
fre igh
fol ded</w>
figh tin</w>
f ling</w>
expe c
ex am</w>
er to</w>
er go</w>
en ting</w>
emp tied</w>
emp ha
el ing</w>
dra wers</w>
disor der</w>
di oce
di ly</w>
defen dan
daugh ter
dan cin</w>
d ler</w>
cz ar</w>
cur ri
cru i
cro ps</w>
cre d
craw led</w>
coup les</w>
cor pses</w>
contro lling</w>
consider able</w>
cock roaches</w>
co pied</w>
ch or
ca sper</w>
ca m
c y-
c had</w>
burea u
bu ms</w>
bo obs</w>
bo llo
bar ri
bani shed</w>
ban a</w>
ba d
as is</w>
ar gen
apologi zing</w>
any place</w>
an us</w>
an ed</w>
allowan ce</w>
al b
adverti sing</w>
advan tages</w>
admini stra
ade qu
addi ction</w>
8 7</w>
5 ,000</w>
-- when</w>
youn gest</w>
you ll</w>
wood ly</w>
wo ah</w>
wa ges</w>
vis its</w>
up right</w>
un solved</w>
uc ci</w>
u no
troop ers</w>
tro y</w>
trea ts</w>
toma to</w>
to dd</w>
thirty- two</w>
thin ker</w>
ten nial</w>
sur fer</w>
suppor ting</w>
sub scription</w>
stran gle</w>
star gher</w>
squ at</w>
split ting</w>
so pho
so l</w>
snu ck</w>
sme lling</w>
ske pti
shu ts</w>
sher min</w>
secre cy</w>
se i
sau sage</w>
sar ris</w>
sa lute</w>
ru ben</w>
respe ct
rela xing</w>
re set</w>
progra mming</w>
pro minent</w>
presid ency</w>
pow wow</w>
pocket book</w>
plo tting</w>
ph ins</w>
persu a
per k</w>
pentange li</w>
pen ci
pea k</w>
pe gged</w>
or egon</w>
oper ated</w>
oni ons</w>
nico tine</w>
never mind</w>
near er</w>
n ite</w>
mu stache</w>
mou stache</w>
mon to
mo i
minima l</w>
mini sters</w>
ming ham</w>
min ors</w>
min ority</w>
metro polis</w>
mari etta</w>
mar cie</w>
m s
lou se</w>
lla ble</w>
lla 's</w>
ll man</w>
living ston</w>
len gths</w>
lea dership</w>
lan celot</w>
la iney</w>
l one</w>
k af
jo anne</w>
jer ry's</w>
jack ets</w>
ir ena</w>
inspi re</w>
inher ited</w>
i ans</w>
hosti lity</w>
hoo ks</w>
hon our</w>
hear in</w>
ha dda</w>
h ed</w>
gu ild</w>
gan d
gand hi</w>
ga ff</w>
g als</w>
ful ness</w>
fren chman</w>
fre d
flo yd</w>
flo ck</w>
fi e</w>
f les</w>
f ers</w>
ever' body</w>
er man</w>
equ ality</w>
ele ct</w>
e ster</w>
dri sco
dra wings</w>
do t
divi ded</w>
divi de</w>
dire cting</w>
deman ding</w>
decei ve</w>
cti vely</w>
cre st</w>
conver tible</w>
confe ssed</w>
com promised</w>
co bb
cen tennial</w>
carri ers</w>
car rie</w>
ca lf</w>
bo tt</w>
blo ke</w>
bi centennial</w>
be g
be ck</w>
ban da
back ward</w>
ba hamas</w>
assu rance</w>
argu ments</w>
ar lyn</w>
ar ch</w>
ali mony</w>
ado pt</w>
ad ditional</w>
ab bott</w>
5 0,000</w>
18 0</w>
zz ard</w>
xi ous</w>
wit ch
wiscon sin</w>
wes sex</w>
wel sh</w>
w ri
victi m's</w>
vi si
ve st
u sin</w>
two- fifty</w>
transpor ter</w>
trans vest
to id</w>
tha il
thail and</w>
ter rain</w>
swee test</w>
sui cidal</w>
su re
station ed</w>
st ash</w>
squi re</w>
spit ting</w>
son 'a</w>
sn itch</w>
ski rts</w>
simp ler</w>
shi pped</w>
shi el
shel by</w>
sh ments</w>
sen seless</w>
sele ction</w>
se lect
scal p</w>
sa dness</w>
s wings</w>
s ought</w>
s berg</w>
ru bbing</w>
roo kie</w>
ro tting</w>
restri cted</w>
relu ct
re mo</w>
ra ys</w>
ra me
precau tion</w>
poe tic</w>
plainti ff</w>
pict u
peri o
patri ot</w>
paras ite</w>
pa stor</w>
pa me
pame la</w>
pa den</w>
p int</w>
no xious</w>
no thing
nin g's</w>
na tion
musi cians</w>
mu stard</w>
mon th's</w>
mon ade</w>
mo ses</w>
misunder stand</w>
medi oc
me tal
me gan</w>
mck en
love joy</w>
lou sly</w>
lo ve-
listen in</w>
li s
le monade</w>
lan der</w>
l ever</w>
kop al
kk ah</w>
ke ye</w>
jud ged</w>
jack -
ite ms</w>
isa bella</w>
invol ves</w>
inqui ries</w>
in o</w>
in fatu
im provi
im mature</w>
i' mma</w>
hunse cker</w>
humper din
humperdin ck</w>
her man</w>
her d</w>
han u
ha th</w>
gre et</w>
gg led</w>
fra mes</w>
fossi ls</w>
fi st</w>
exe cute</w>
emb race</w>
ell sberg</w>
egy pti
eg ghead</w>
do re</w>
do me</w>
distra ct</w>
dick head</w>
dela yed</w>
de u
day time</w>
dai sy</w>
custo m</w>
cro ix</w>
cover age</w>
coron er's</w>
cor ro
cor ky</w>
cor be
contribu tion</w>
conta minated</w>
con nor</w>
con dom</w>
chau ffe
challen ged</w>
can n
ca tors</w>
ca lloway</w>
ca ct
bur gel</w>
buck ley</w>
bu yer</w>
bru ises</w>
brief ed</w>
bre tt</w>
boo kie</w>
blen der</w>
blan ks</w>
bi lit
be verage</w>
be tter'n</w>
bar king</w>
bal anced</w>
bab bling</w>
assa ul
ar oun
analy zed</w>
ami go</w>
af fli
act in</w>
a wa
1 14</w>
-- -
- el</w>
' st</w>
zz zz
wr en
wor d
whi ps</w>
wa tson</w>
w rists</w>
vo id</w>
vi znick</w>
veri fy</w>
va cant</w>
ugar te</w>
u ss</w>
u de</w>
trust worthy</w>
thi um</w>
th en
tea s
sy bok</w>
sun g</w>
stra pped</w>
sti cal</w>
sli my</w>
sel f
sc use</w>
safe st</w>
sa ver</w>
s lot</w>
run away</w>
ru p
ron ny</w>
ro ma</w>
ro e</w>
rhy me</w>
recru iting</w>
re solve</w>
re served</w>
re morse</w>
rapi dly</w>
rain bow</w>
ra mbo</w>
propagan da</w>
pro x
pro fan
pre fer
pp ery</w>
po w</w>
pin ker
penetra te</w>
pe -
p re</w>
oxi de</w>
op enly</w>
numb er's</w>
no- one</w>
ni sh</w>
need les</w>
na u
my ra</w>
mu sh
mp a</w>
mon roe</w>
mi ssy</w>
men tation</w>
mc clu
mayo r's</w>
may hem</w>
massa c
mar kets</w>
ma h</w>
ma -
lo ttery</w>
live lihood</w>
life style</w>
li thium</w>
lef t-
law 's</w>
lar k</w>
lan es</w>
ko ta</w>
ju das</w>
john ny's</w>
je su
je e
intelle ctual</w>
instru cted</w>
in convenient</w>
impro vement</w>
im person
i' m
hur on</w>
hun ga
hu gh</w>
hobb s</w>
ho st
her ring</w>
he e</w>
hay dn</w>
hand bag</w>
h mmmm</w>
h 'm</w>
gu l
grand son</w>
gor man</w>
goddam it</w>
gin gs</w>
gil ded</w>
gh ed</w>
gener ations</w>
gener ated</w>
gen sen</w>
ga sket</w>
g lance</w>
fuck er's</w>
fool in</w>
favor ites</w>
f right</w>
f ly
f eared</w>
exagger ating</w>
es thetic</w>
eras ed</w>
er otic</w>
emi l</w>
elev ated</w>
el ders</w>
e mmi</w>
du mber</w>
dri ve
docu mentary</w>
distra cted</w>
disappo inting</w>
di sobe
di gest</w>
democra cy</w>
demo liti
de m</w>
de bris</w>
dd ers</w>
davi dson</w>
dam on</w>
da kota</w>
cu test</w>
cro sses</w>
costu mes</w>
con cannon</w>
co al</w>
cla r
chi m
che wed</w>
characteri stics</w>
caro lyn</w>
car tman</w>
car rot</w>
can ned</w>
can ary</w>
calcu lations</w>
ca valry</w>
ca ry</w>
brin gin</w>
bourgeo is</w>
bo lts</w>
bla ze</w>
biscu it</w>
ber t's</w>
beli ever</w>
be 's</w>
batt les</w>
bald win</w>
ba ggage</w>
b y's</w>
assassin s</w>
ar m
approa ched</w>
answer 's</w>
ana sta
al ter</w>
admi rer</w>
a gon
8 th</w>
za tions</w>
z am
you t</w>
yon naise</w>
ya shi</w>
y u</w>
w ling</w>
vo ted</w>
vin di
vi ru
vi e</w>
ven ti
ve ts</w>
va ggi
vaggi o</w>
und ou
undou b
undoub tedly</w>
tw it</w>
tru ce</w>
tran s</w>
tra me
to on
ti sm</w>
ti pping</w>
ter nity</w>
temp tation</w>
tea ches</w>
sub conscious</w>
su shi</w>
stabi lize</w>
ssi es</w>
ss ler</w>
sque e
speci alist</w>
spe ck</w>
siber ia</w>
si de-
shu sh</w>
sh rub
shrub bery</w>
self- defense</w>
se wing</w>
se men</w>
scra mbled</w>
sc a</w>
sacrifi ced</w>
sa iled</w>
sa cra
s-- and</w>
ru s
ru e</w>
ro per</w>
ro c
rhon da</w>
refu sing</w>
re tain</w>
re no
ra ting</w>
ra ining</w>
ra ckets</w>
r hin
pu erto</w>
prosecu tion</w>
promo te</w>
prob able</w>
prob ability</w>
pro mp
prior ities</w>
prelimin ary</w>
prejudi ce</w>
pre crime</w>
po la
ph rea
per rault</w>
peop les</w>
pe ll
p d</w>
ous ine</w>
ou x</w>
ori um</w>
oran ges</w>
offi cials</w>
no ble
noble man</w>
ni e's</w>
ne x</w>
n sa</w>
mor tality</w>
mon strous</w>
mira cu
mer y</w>
mer cen
medi cs</w>
mar ty
mag da</w>
mac ready</w>
ma yonnaise</w>
ma iled</w>
ma ge</w>
ma e</w>
ma dri
lo we</w>
lit ter</w>
lip nik</w>
linden meyer</w>
lim ousine</w>
life -
li mp</w>
li ere</w>
laun ched</w>
lan 's</w>
l ever
koba yashi</w>
ke it
ka y
jud d</w>
ju an</w>
jan e
jame son</w>
it ches</w>
investiga tions</w>
instru ct</w>
in sol
in crimin
in cin
incin er
in capable</w>
i sley</w>
i d's</w>
hy de</w>
hospit als</w>
hold ers</w>
hit ler's</w>
he in
gener als</w>
gen ous</w>
gen eva</w>
gar y's</w>
ga d
functi onal</w>
fre shman</w>
fre sh
fra u
for ge</w>
for -
flash light</w>
fi bers</w>
en ced</w>
el sa</w>
eight- thirty</w>
ear rings</w>
e en</w>
du mps</w>
dru gged</w>
do g-
diplo matic</w>
di version</w>
di o</w>
descri bing</w>
der i
den ham</w>
deliver ies</w>
de mean
de bi</w>
cy cles</w>
cu ra
concea led</w>
colla pse</w>
cock roach</w>
clo ck
cli mate</w>
ck les</w>
circu its</w>
chuck ie</w>
chicken shit</w>
chee sy</w>
ch u</w>
cata stro
cara vaggio</w>
car ved</w>
bun k</w>
bu bber</w>
bre y</w>
boun ced</w>
blu es</w>
bi mbo</w>
bi cycle</w>
bar ge</w>
bal l-
bal l's</w>
ba tta
au brey</w>
astron au
arch dioce
ar ena</w>
amu sed</w>
alb any</w>
ado re</w>
ac es</w>
abstra ct</w>
9 5</w>
9 11</w>
8 :</w>
6 2</w>
2 n
1 1
0 4</w>
zz le</w>
yo gu
yogu rt</w>
y ll</w>
who ever's</w>
whit tle
what's- his-
w ny</w>
w d</w>
vit ational</w>
ver ty</w>
valen tin
un grateful</w>
un cut</w>
u rice</w>
turki sh</w>
triu mp
tooth pick</w>
tin ople</w>
ti les</w>
ti juana</w>
threa ds</w>
thor wal
ter ia</w>
techni cian</w>
te ssi
ta ri
supp lied</w>
su tton</w>
sta mped</w>
ssi vely</w>
ss ken</w>
squir t</w>
spi lled</w>
specta cle</w>
son u
son ora</w>
so li
sle eve</w>
sky walker</w>
si ghts</w>
si cs</w>
shre ds</w>
shin zon</w>
sh red</w>
sh evi
sche v</w>
sca g
sc ur
sc rub</w>
sax oph
saxoph one</w>
sar ca
san derson</w>
sa vage</w>
sa matter</w>
s pre
s late</w>
ri vers</w>
ri ck's</w>
rhy th
rho de</w>
regi onal</w>
ra tan</w>
ra cial</w>
ra che</w>
pu ffy</w>
pre poster
pra ise</w>
poison ing</w>
po verty</w>
po op</w>
pli ssken</w>
pin ched</w>
pean uts</w>
pas sports</w>
pa ley</w>
over seas</w>
obje cts</w>
o x</w>
nor theast</w>
no vels</w>
na pkins</w>
n- no</w>
mor row</w>
mor ris</w>
mo e</w>
mi ya
mete or
me urice</w>
man us</w>
mag num</w>
ll y-
ling k</w>
le ons</w>
l u</w>
l ence</w>
kill er's</w>
khru schev</w>
k lute</w>
k la
ja b</w>
inju ries</w>
in convenience</w>
in competent</w>
in car
impul ses</w>
humi lity</w>
hu ckle
huckle berry</w>
hin du</w>
hebre w</w>
hand book</w>
hallucin ations</w>
hal le
ha sh</w>
gran ge</w>
gra y
gra vitational</w>
gori lla</w>
go ver</w>
glo be</w>
gen es</w>
g under
fund ed</w>
fun gus</w>
forma lity</w>
fire works</w>
fian c</w>
fi sherman</w>
fer ti
fe teria</w>
fe es</w>
f led</w>
explor ing</w>
every thing'll</w>
er mo</w>
en tic</w>
effi ciency</w>
dum bass</w>
du val</w>
du ane</w>
done ghy</w>
do mini
dit ched</w>
dis missed</w>
dis gust</w>
dis gui
dick ie's</w>
di c
deton ate</w>
depos its</w>
decla ration</w>
dd les</w>
dar yll</w>
dar cy</w>
dam p</w>
da ri
d red</w>
d re</w>
d ab
cti onal</w>
ct ur
cro ws</w>
coo ch</w>
conver sations</w>
consul tant</w>
constan tinople</w>
concentra ted</w>
compet itive</w>
communi cating</w>
comman ds</w>
co u</w>
co sme
co oped</w>
clari fy</w>
cha mbers</w>
casano va</w>
care ers</w>
car twright</w>
ca tor</w>
ca tal
ca ges</w>
ca feteria</w>
c' est</w>
c live</w>
burgla r</w>
buil ds</w>
bu gger</w>
bu ffo
bro ck</w>
brin k</w>
bol shevi
bo ating</w>
bla sted</w>
bla ine</w>
ban quet</w>
ba k
ba in</w>
auth entic</w>
aspi rin</w>
ar mored</w>
ar cha
ano ma
analy ze</w>
an kles</w>
amoun ts</w>
ali en
air lines</w>
advan ces</w>
adju stment</w>
acci dental</w>
a k</w>
a hold</w>
y er's</w>
witch craft</w>
who o</w>
vi ctor's</w>
val erie</w>
v atory</w>
v -
un natural</w>
un employed</w>
un common</w>
un authorized</w>
u pri
ty pi
tru mpet</w>
tri fle</w>
tri ck-
tra shed</w>
to ken</w>
tin i</w>
thor ne</w>
ther ed</w>
tha t-
th y's</w>
ta ries</w>
ta gs</w>
syndi cate</w>
swe de</w>
survi ving</w>
strate gic</w>
stran ded</w>
stir red</w>
spoo ks</w>
spontane ous</w>
specta cular</w>
sk ar</w>
see ya</w>
sca les</w>
san cti
sa y--
resurre ction</w>
rei ch</w>
reha b</w>
regi ment</w>
reali se</w>
rea cting</w>
re ject</w>
quit tin</w>
pron oun
pro fit
presen tly</w>
post pone</w>
polit an</w>
pi ro</w>
pi llo
per se
pe ter's</w>
paralle l</w>
ort ers</w>
oo o
on imo</w>
on ent</w>
ome lette</w>
octo pus</w>
ob noxious</w>
o skar</w>
nor we
noi sy</w>
no c</w>
ni ki</w>
ne bula</w>
monit oring</w>
mon ey
mi ld
mi gu
mercu ry</w>
meaning ful</w>
me yers</w>
mc donal
martin is</w>
man i</w>
man hood</w>
ma kers</w>
m na
lou d
lon nie</w>
lo sses</w>
li mbs</w>
la c</w>
kno win</w>
k ob
jun kies</w>
in stal
in justice</w>
in definitely</w>
impli cations</w>
im itation</w>
igno ring</w>
i ran
i owa</w>
i ce-
house wives</w>
host ess</w>
ho od
ho mo</w>
ho g</w>
hin kley</w>
here sy</w>
help mann</w>
hau ling</w>
hanu kkah</w>
han na</w>
ha p</w>
h- uh</w>
gy mna
guer ri
gree ce</w>
gi v
ger onimo</w>
gall ons</w>
g low</w>
fug itive</w>
fruit cake</w>
fran chi
for sa
finan cing</w>
fif ty-five</w>
fiel d's</w>
fi ddle</w>
fal con</w>
f east</w>
examin ing</w>
ex qui
esti mating</w>
er rand</w>
en danger
emo tionally</w>
eli as</w>
ed ers</w>
drisco ll</w>
doub ted</w>
dou cet</w>
dol phins</w>
do th</w>
distingui shed</w>
dis position</w>
dis connect</w>
diplo mat</w>
din o</w>
deva stated</w>
der e
den se</w>
demon strate</w>
de witt</w>
dai ry</w>
cru sa
crow ns</w>
cra tes</w>
cor oner</w>
contain ed</w>
consu med</w>
comfor ting</w>
colle ctor</w>
co t</w>
co ld-
co ch
coch ran
christi e</w>
christ op
cho pping</w>
china man</w>
cheer ful</w>
char ter</w>
ce llo</w>
cap itali
brea ths</w>
bo de
blin k</w>
ble 's</w>
bir mingham</w>
bir d
bern ard</w>
ben es</w>
barn hardt</w>
ball player</w>
ba m</w>
au gu
as m</w>
arti llery</w>
ani e</w>
ameri ca's</w>
alger ia</w>
adequ ate</w>
addi cted</w>
abra ham</w>
ab be</w>
z y
z is</w>
yo da</w>
y an</w>
wre stler</w>
wor ryin</w>
won t</w>
wo p</w>
wick wire</w>
wi ser</w>
wi lly</w>
why n't</w>
weir dest</w>
wei ghs</w>
warran ts</w>
war ne</w>
war med</w>
vie wing</w>
vi lla</w>
vel vet</w>
vati can</w>
va se</w>
v itch</w>
ur in
under pants</w>
un real</w>
un lucky</w>
un do</w>
tur tle</w>
tribu nal</w>
tri pped</w>
tra ins</w>
too ed</w>
thir d-
tele phoned</w>
teas dale</w>
te sta
tat tooed</w>
tan ker</w>
tan 's</w>
ta hit
tahit i</w>
ta ckle</w>
t 'em</w>
symbo ls</w>
swa p</w>
superst itious</w>
sun down</w>
su ffi
stu ds</w>
stair well</w>
stair case</w>
sta ck</w>
ss ance</w>
squ ash</w>
spor ting</w>
sp reads</w>
sovie ts</w>
soci o
so s</w>
slu ts</w>
sli ppery</w>
sli des</w>
signa tures</w>
si ster
si li
si ana</w>
ser af
seraf ine</w>
se w</w>
se mi
scru ples</w>
scha e
sch mid
schmid t</w>
san de
sande fur</w>
sa under
roc co</w>
rit es</w>
remin ding</w>
rela y</w>
reinfor cements</w>
recommen dation</w>
re fill</w>
rave ll</w>
rar ed</w>
r ha
quar rel</w>
pu ss
privile ged</w>
pre va
pre scri
posse ssive</w>
porno graphy</w>
po re</w>
pit cher</w>
pinker ton</w>
pin ot</w>
pilla r</w>
pick -up</w>
philoso pher</w>
ph one's</w>
pat sy</w>
pa ppy</w>
p ab
or dell's</w>
op ium</w>
on na</w>
occa sions</w>
o mi</w>
numb ered</w>
noti fy</w>
no ma
nix on's</w>
na te</w>
na omi</w>
mu da</w>
mo de</w>
minu te
million aires</w>
micro phone</w>
merci ful</w>
mcca ff
mccaff rey</w>
mark ers</w>
m unity</w>
m n</w>
lou i
loui siana</w>
lon el
lonel iness</w>
lob ster</w>
li za</w>
lang ley</w>
lan d's</w>
l sen</w>
kopal ski</w>
klin gons</w>
kissin ger</w>
ka i</w>
ju st
jor ge</w>
jo hana</w>
jeffer ies</w>
ja y
inv aded</w>
inter ven
inter n
inf rared</w>
im munity</w>
il legally</w>
hu gh
hugh es</w>
hor ace</w>
hon ors</w>
ho ller</w>
ho ck
hit tin</w>
hi ss</w>
hen dri
hemor rha
hel muth</w>
he e-
gun shot</w>
gran ts</w>
gra vy</w>
good man</w>
glu e</w>
gla dys</w>
girl friend's</w>
gi ba
giba rian</w>
geor ge's</w>
ge no
gather ed</w>
gar lic</w>
gall ant</w>
g ham</w>
frequ ent</w>
free zer</w>
fre t</w>
fossi l</w>
for gery</w>
flexi ble</w>
fle e
fil m
fifty- seven</w>
fal co</w>
f ear
explo it</w>
expe lled</w>
est e
epi de
epide mic</w>
en a
el o</w>
dra stic</w>
don key</w>
don ation</w>
dis patch</w>
di ving</w>
di stor
di p
di c</w>
devo tion</w>
dev ils</w>
dead beat</w>
de z</w>
dar t</w>
crocodi le</w>
cou er</w>
conta gious</w>
con s</w>
comm une</w>
com partment</w>
co sta</w>
co logist</w>
clean ers</w>
cla ren
cha z</w>
ch unk</w>
ch s</w>
casu alties</w>
car tel</w>
can al</w>
cact us</w>
ca pped</w>
business men</w>
buck le</w>
brain erd</w>
bon dage</w>
body guards</w>
bit ter
bio logy</w>
bi dding</w>
bee tle</w>
be st-
bb ins</w>
barz ini</w>
ban za
bal lo
b m
ast oni
ash ley</w>
arti ficial</w>
ar tery</w>
ar son</w>
anti ques</w>
anesthesi ology</w>
al ba
air borne</w>
agit ated</w>
ag gra
after ward</w>
addi ct</w>
acqui re</w>
a partments</w>
a lot</w>
a k
9 7</w>
6 3</w>
1 4
zombi es</w>
wear in</w>
vo y</w>
vir tually</w>
vin ci
vi sions</w>
velo city</w>
ve no
ve ments</w>
vari ables</w>
under ing</w>
un h</w>
un employment</w>
uc cino</w>
u pp
tu bes</w>
transmit ter</w>
trame ll</w>
ther mo
tha i</w>
te l
syste m's</w>
swit ching</w>
swi cker</w>
su ffers</w>
stre ssed</w>
straw berry</w>
stran gled</w>
stran gely</w>
stor ms</w>
stev ie</w>
steno grapher</w>
sse ls</w>
spect rum</w>
sp ou
sp li
solit ary</w>
ski ff</w>
sh ers</w>
senti ment</w>
semin ar</w>
se dated</w>
sca re
scare crow</w>
sa vi
s-- i</w>
s lots</w>
rosa line</w>
rib bean</w>
ri chie</w>
ri can</w>
retar ds</w>
rescu ed</w>
repri eve</w>
rep ly</w>
regu lation</w>
regi stration</w>
recor der</w>
recon ci
reali zing</w>
re tro
re k</w>
re fin
ran do
puppe teer</w>
pro stitu
pro hi
pro b</w>
priva tely</w>
prepar ation</w>
pon ies</w>
pho ton</w>
phi l
pe ters</w>
out doors</w>
o mi
ny mp
nor folk</w>
no stal
ni g
ner o</w>
nekhor vich</w>
natu ra
mon go
mon e's</w>
mo l
mm- hmm</w>
mi ld</w>
mete or</w>
me b
meb be</w>
mar ries</w>
mar king</w>
lyn don</w>
lu jah</w>
lor ds</w>
loo ting</w>
lin en</w>
licen sed</w>
le no
land sca
la g</w>
la ddie</w>
kru e
kra ut</w>
kor ean</w>
keit el</w>
ke ssler</w>
k lu
intru ding</w>
interru pted</w>
insu red</w>
in test</w>
in fir
infir mary</w>
i d
hun ner
hub ley</w>
he mi
halle lujah</w>
ha cked</w>
h s</w>
ge t-
gar land</w>
g les</w>
for ged</w>
fla gs</w>
fi sts</w>
fi de
fe tish</w>
fa ils</w>
fa ctors</w>
ex pi
ex ley</w>
er ran
episo des</w>
emb ar
el m</w>
e- up</w>
drug store</w>
dispu te</w>
di ans</w>
depri ved</w>
deplo y</w>
denti als</w>
dee p-
de light</w>
da de</w>
d ye</w>
cy rus</w>
cu b</w>
cre dentials</w>
cra mps</w>
contro ver
conta mination</w>
concu ssion</w>
con sig
con fined</w>
colle ctive</w>
colla teral</w>
cla re
chim ney</w>
char en
cha teau</w>
capp uccino</w>
calcu late</w>
ca ribbean</w>
c ron
c lit
butch ered</w>
bu mps</w>
boa st</w>
bi ff</w>
bar t</w>
bar 's</w>
bapti zed</w>
ban ds</w>
ba sh</w>
ba '
ba' ku</w>
b ited</w>
aristo cra
ar mies</w>
ar kansas</w>
ar ent</w>
appar ent</w>
an al</w>
al -
adju sted</w>
zo id</w>
yor gi</w>
y- yes</w>
x en
wre stle</w>
wor ships</w>
win ding</w>
wi llard</w>
wa snt</w>
wa l</w>
virgin ity</w>
ver mont</w>
vegeta rian</w>
ve il</w>
vali um</w>
v at</w>
ur i</w>
up state</w>
un tou
untou cha
un aware</w>
twenty- nine</w>
tri -
tra ded</w>
tooth paste</w>
toon town</w>
toma toes</w>
tit les</w>
ti p
thur sdays</w>
three- hundred</w>
tho logy</w>
ta ck</w>
surf ing</w>
suppor ted</w>
superi ors</w>
stron gest</w>
stri pe</w>
stri cken</w>
ssi ble</w>
squ a
soa ked</w>
slo wed</w>
slaugh ter
ske tch</w>
shi fted</w>
sha w's</w>
sha man</w>
se ttin</w>
se th</w>
scor pi
sa ils</w>
s- s-
s ss</w>
ry u
run ners</w>
roo ks</w>
ro sen
rein carnation</w>
recommen dations</w>
re m</w>
ra mona</w>
r up</w>
question na
psychiatri sts</w>
pro phe
preven ted</w>
preposter ous</w>
preda tor</w>
pr of</w>
por table</w>
po stal</w>
po e</w>
play wright</w>
pla in
pit er</w>
pe sti
pe ddle</w>
pau line</w>
part y's</w>
pack ard</w>
pa ssive</w>
p tions</w>
oo oo</w>
oc ta
nu wanda</w>
now --
no va</w>
no minated</w>
ne p
nar ro
mor tals</w>
mon thly</w>
mon itors</w>
mon aster
monaster y</w>
modu le</w>
mo tives</w>
mo ld</w>
mix ture</w>
min eral</w>
mer chant</w>
mara thon</w>
mar ble</w>
mahara jah</w>
m end</w>
lo cking</w>
liver pool</w>
lea ked</w>
la mbs</w>
kid neys</w>
ki ki</w>
kaf ka</w>
jo ints</w>
is in</w>
infin ite</w>
i'm- i'm</w>
hyster ia</w>
horse -
hold en</w>
hea ter</w>
har tman</w>
ha unt</w>
ha ha
ha dd
hadd on
gu ed</w>
grand mother's</w>
gr oun
gla di
funni est</w>
fro ck</w>
firear ms</w>
fi shy</w>
exi sting</w>
excep tional</w>
exagger ate</w>
ex cali
excali bur</w>
emin ence</w>
ed itors</w>
earthqua kes</w>
e we</w>
e states</w>
dy ke</w>
du cks</w>
dow ns</w>
doub tful</w>
do y
do --
disc lo
dis regard</w>
dis barred</w>
di x</w>
di gni
di em</w>
demean or</w>
dece ption</w>
de ly</w>
de em</w>
de anna</w>
dd ya</w>
dan 'l</w>
d ous</w>
d j</w>
cra b</w>
coun tess</w>
congre ssional</w>
concer ts</w>
coman che</w>
com par
clo cks</w>
chron ic</w>
ch er's</w>
ce tera</w>
cau tious</w>
caro lina</w>
can celled</w>
ca ves</w>
c rooks</w>
broo ks</w>
brea kin</w>
bon d
bollo cks</w>
bla mes</w>
bi ll's</w>
beli efs</w>
bar f</w>
bar bie</w>
banda ges</w>
back -
ba go</w>
auto mobile</w>
appre hen
anni e's</w>
and- and</w>
ance stors</w>
an ces</w>
alle ged</w>
al fredo</w>
ad m</w>
aa ah</w>
a tra</w>
a mp
a '
7 6</w>
5 8</w>
3 -
2n d</w>
zz ie</w>
z ia</w>
your -
wi lls</w>
whoop ing</w>
what samatter</w>
wh ining</w>
war m
wan dered</w>
wal lo
vo sa</w>
ver dict</w>
ve e</w>
vani lla</w>
va ugh
va ting</w>
va st</w>
va ki
under way</w>
un a</w>
u hm</w>
two- bit</w>
tru ths</w>
tre mbling</w>
transa ction</w>
trans late</w>
ton sils</w>
to sh</w>
to p-
to ck</w>
thirty- eight</w>
th under</w>
ten ta
tele phones</w>
tal ley</w>
t ities</w>
super inten
superinten dent</w>
suffo cating</w>
stri ker</w>
str and</w>
stea ks</w>
ssa ble</w>
sp her
sor an</w>
sophi a</w>
slu gs</w>
slo vaki
shu tting</w>
shin y</w>
sha ken</w>
seventy- two</w>
se ll
scre ening</w>
scra ps</w>
san ta's</w>
sa ws</w>
sa ssy</w>
s ny
sny der</w>
s ms</w>
ry town</w>
ru thless</w>
ru gs</w>
ru do
rudo lf</w>
ro oney</w>
rho des</w>
rey nard</w>
restra ining</w>
rea gan</w>
re je
ra mbling</w>
ra cist</w>
qu ent</w>
qu en
puni shing</w>
pu ffs</w>
proce ssing</w>
pro ver
pro found</w>
preten ds</w>
pre tz
po ly</w>
plu mber</w>
pla cement</w>
pho bia</w>
phi li
peter son</w>
penit ent</w>
pal ermo</w>
pa leon
pa irs</w>
p up</w>
p rying</w>
over due</w>
over board</w>
ob ste
o ld
nothing ness</w>
ni p</w>
neu tron</w>
navi gation</w>
mor bid</w>
monto ya</w>
mon key
monkey bone</w>
migu el</w>
metho do
methodo logy</w>
metaph or</w>
me li
mc manus</w>
mar vosa</w>
manife st</w>
man drake</w>
ma sses</w>
ma est
maest ro</w>
ma cle
macle od</w>
m r
m ly</w>
lo tion</w>
lo k</w>
lo af
llo wed</w>
ll ll
lin s</w>
li zard</w>
li zar
li z
li ai
liai son</w>
led nov</w>
lan s</w>
ku lok</w>
kni cks</w>
ki mmy</w>
ju les</w>
j ur
j es</w>
inve stors</w>
inva de</w>
ing --
in operative</w>
house wife</w>
home y</w>
hi ve</w>
hi king</w>
hea ting</w>
handcu ffs</w>
han gs</w>
gu lli
grocer ies</w>
gri ll</w>
gondor ff</w>
gn ers</w>
gla mour</w>
gha stly</w>
ge taway</w>
gall on</w>
ga in
ful filled</w>
ful fill</w>
fu ry</w>
fu lla</w>
fron tier</w>
fro gs</w>
fred die's</w>
foren sics</w>
forei gners</w>
for gets</w>
for ce
fle e</w>
flae mm</w>
fil ter</w>
fif teen-
fan gs</w>
fa ding</w>
exten sive</w>
expre ss
evi dently</w>
en dings</w>
ell is</w>
el u
el even
ed ges</w>
ed -
dun witty</w>
du sty</w>
du ct</w>
distin ct</w>
di ment</w>
den s</w>
deb bie's</w>
de st
dam n
da y--
da mes</w>
d well</w>
cru el
coura geous</w>
cou gar</w>
col i</w>
co yo
co let</w>
co ins</w>
cli ps</w>
ci des</w>
chev y</w>
che on</w>
cess or</w>
cade ts</w>
cab ins</w>
ca se
c mon</w>
butter field</w>
bu bble</w>
brun ette</w>
bro wn
bran ding</w>
bonte cou</w>
bode ga</w>
boar d
bo mber</w>
blo ated</w>
bl ur
bi ous</w>
ber 's</w>
belon ging</w>
bea r
be having</w>
barbe cue</w>
bal led</w>
bak ery</w>
back pack</w>
b ind</w>
aw w</w>
attor ney's</w>
astero id</w>
as s-
anticipa te</w>
anni hi
acce pting</w>
a wait</w>
a tics</w>
a ma</w>
a las</w>
5 4</w>
3 50</w>
2 7
2 1st</w>
10 1</w>
-- all</w>
zo wie</w>
za ius</w>
y- do
y st</w>
xi li
xili ary</w>
wit wer</w>
wild life</w>
whi spers</w>
war saw</w>
war head</w>
wal ters</w>
wa ski</w>
vio lating</w>
vie wer</w>
vege tables</w>
understand able</w>
tu cked</w>
tri m</w>
tough est</w>
thro p</w>
terr i</w>
termin ation</w>
ten ds</w>
t ling</w>
swit ch
sub du
stro kes</w>
stor ing</w>
sti ck
st led</w>
son ed</w>
sni ff</w>
snea kin</w>
sin ned</w>
simultane ously</w>
si ren</w>
sh id</w>
select man</w>
sele cted</w>
se t
se llers</w>
scre ws</w>
sco bie</w>
sad dam</w>
sacra mento</w>
sa mpson</w>
s words</w>
s cal</w>
roo m's</w>
rob ins</w>
ri l</w>
ri ck
reven ue</w>
reha bilit
red head</w>
recru it</w>
re views</w>
re fresh</w>
re collect</w>
ran dal</w>
ra ping</w>
quali fications</w>
quain t</w>
pur chases</w>
pupi l</w>
privile ges</w>
poison ous</w>
poin t-
plea su
plan e
pin o</w>
pi g
perpe tra
penetra ted</w>
pe l
pan k
pank ot</w>
pa jamas</w>
p p</w>
p ans</w>
out la
outla wed</w>
os borne</w>
or char
oo m</w>
on able</w>
ol o</w>
of fre
occur s</w>
obje ctions</w>
o' connell</w>
o ona</w>
ni er</w>
mu gged</w>
mor de
morde chai</w>
mont go
montgo mery</w>
min gly</w>
mi strial</w>
men ta
mee tin</w>
mea sly</w>
me th</w>
me lo
mc in
mc call</w>
m und
lyn ne</w>
lla h</w>
li mping</w>
lei sure</w>
lega cy</w>
lea king</w>
l ha
kni gh
kee p
je lly</w>
it z</w>
interfer ing</w>
indi cation</w>
in tra
in spect</w>
in famous</w>
imp ri
i gnition</w>
human ly</w>
ho mer
hea ted</w>
haw keye</w>
har mon
har lin</w>
half dan</w>
gy ne
gri er</w>
grand mama</w>
go ons</w>
gi ve
gi m
ge offre
g ments</w>
g '
fran ce
forsa ken</w>
fire fly</w>
fifty- fifty</w>
fif ties</w>
fe min
fe bru
f ler</w>
eye balls</w>
explo ded</w>
execu tion</w>
ex ternal</w>
est a</w>
ess ential</w>
enthusi asm</w>
electron ics</w>
electro cuted</w>
eccen tric</w>
e p
du de's</w>
dra ggin</w>
dis se
dis miss</w>
dip shit</w>
di er</w>
develo pment</w>
demi se</w>
de tention</w>
de fle
cyclo ps</w>
cu th
criti cism</w>
correspon dent</w>
conven e</w>
confi sca
concentra ting</w>
conce pts</w>
con sole</w>
colon ies</w>
coa st
co il</w>
co 's</w>
clear er</w>
class room</w>
chi lton</w>
car rier</w>
cann ons</w>
ca ss
c len
bu yin</w>
bra cken</w>
boun cing</w>
black jack</w>
bix by</w>
bi sh</w>
bi o</w>
ber muda</w>
be ck
ban gs</w>
ba s</w>
ba re
aw ww</w>
au xiliary</w>
ar ray</w>
apprenti ce</w>
appea ling</w>
anasta sia</w>
aly ssa</w>
alli ance</w>
affe cts</w>
acknowled ged</w>
achiev ement</w>
a pa
6 6</w>
6 0
3 ,000</w>
20 th</w>
2 9</w>
2 50</w>
13 th</w>
1 0,000</w>
1 ,000</w>
ze e</w>
zam mi
zammi to</w>
yan k</w>
y fuss</w>
win ners</w>
we ep</w>
we bber</w>
wa de's</w>
viru ses</w>
vin e
v ouch</w>
un reasonable</w>
un dead</w>
ty ran
transvest ite</w>
trans fusion</w>
tra vers</w>
to by's</w>
to a
tion ist</w>
ti -
thirty- four</w>
th ra
te sque</w>
swit ches</w>
sur ren
su mmers</w>
su ez</w>
stu bbins</w>
st ures</w>
spar rin</w>
spa des</w>
soun der</w>
sna ppy</w>
sla very</w>
sla m</w>
ski m</w>
skepti cal</w>
simu lator</w>
sili con</w>
si wash</w>
shan gha
shangha i</w>
sh its</w>
sequ el</w>
sensiti vity</w>
semi -
scul p
scot tish</w>
saunder s--
s ma</w>
ru shing</w>
ru ling</w>
ru ler</w>
rose mary</w>
ro sie</w>
ri ders</w>
ri der</w>
rewar ded</w>
repea tedly</w>
ren au
reas su
re wards</w>
re fund</w>
ra tion
qu in</w>
pu tter</w>
pu tter
presid ents</w>
premi um</w>
pre served</w>
pre occupied</w>
po ol
po ds</w>
pla sma</w>
pick le</w>
per u</w>
per kins</w>
parachu te</w>
par rot</w>
p he</w>
os good</w>
or is</w>
or ac
orac le</w>
oo ooh</w>
o zone</w>
o t
o la</w>
note book</w>
non 's</w>
no body'd</w>
night cap</w>
ni lsen</w>
neutra lized</w>
negli gent</w>
nee dy</w>
n arra
mor y</w>
mor ous</w>
moder ation</w>
min d-
mid get</w>
micro scopic</w>
mi sin
men t
mb lance</w>
mb al
man ship</w>
mach er</w>
low ry</w>
long- term</w>
logi es</w>
krue ger's</w>
ki cker</w>
ke -
kay leigh</w>
k le
k able</w>
jump y</w>
ju d</w>
jer i
jeopardi ze</w>
ja mi
ja g</w>
j '
isra el's</w>
ir rational</w>
investiga tors</w>
inher it</w>
in put</w>
imp ly</w>
imp lied</w>
ig or</w>
i- i'm</w>
i v</w>
hu n</w>
hol mes</w>
hin kel</w>
heart less</w>
he ir</w>
har ve
har p</w>
hal o</w>
guin an</w>
gro tesque</w>
gri pe</w>
gri mes</w>
gree ting</w>
grea tly</w>
graphi cal</w>
gra mpa</w>
gra ci
gover n</w>
gi lli
gi lle
gen s</w>
g ned</w>
funer als</w>
fun ky</w>
foun dations</w>
fide lity</w>
fello w
father -in-law</w>
fa intest</w>
f o</w>
er ra</w>
ed wards</w>
earthqua ke</w>
e ck
du blin</w>
dre yfuss</w>
do main</w>
dischar ged</w>
dis ney</w>
dis like</w>
dis connected</w>
dillin ger</w>
destru ctive</w>
depar ture</w>
dep into</w>
decor ated</w>
de pot</w>
ctu ral</w>
cowar dly</w>
coup on</w>
cor ps</w>
condu cting</w>
condo ms</w>
co wards</w>
co logy</w>
clit oris</w>
clif ford</w>
cli mber</w>
clea rance</w>
cine ma</w>
chi pped</w>
charen ton</w>
chara de</w>
char med</w>
char ging</w>
ch on</w>
cen ters</w>
cau ld
cate gory</w>
cap one</w>
c t's</w>
c one</w>
burn field</w>
bubb a</w>
bu lls</w>
bu ggy</w>
bru te</w>
bri cks</w>
bra vely</w>
blue prints</w>
big- time</w>
bi kini</w>
bea med</w>
barre ls</w>
banza i</w>
ba tter</w>
ba tch</w>
ba dges</w>
auto mated</w>
at- at-
assassin ated</w>
arro gance</w>
an ne's</w>
ama zes</w>
agon y</w>
accu sations</w>
accu mu
acce ssed</w>
a mes</w>
a hem</w>
6 5</w>
5 5</w>
zu rich</w>
ze ke</w>
ze bra</w>
zan der</w>
z in</w>
you '
y- you</w>
xen ia</w>
wu ddya</w>
wor d's</w>
win ne
winne bago</w>
wil der</w>
wi lla</w>
whit man</w>
whi stles</w>
whi ch
what's-his- name</w>
what sa</w>
wer ing</w>
weir do</w>
week ly</w>
water front</w>
wal ter's</w>
wa les</w>
wa al</w>
vo ke</w>
vibra tions</w>
ver a</w>
val ve</w>
v s</w>
v on
v ad
up -
uni ons</w>
un locked</w>
tu mor</w>
tra ces</w>
tour na
ton ium</w>
ti ring</w>
ti cks</w>
th x</w>
th and</w>
temp ting</w>
tele scope</w>
ta tum</w>
t sa
tsa vo</w>
t read</w>
substan ti
su spend</w>
stra ted</w>
stea l
ssi an</w>
ss sh</w>
spo ck's</w>
spea ker</w>
span ky</w>
sor ted</w>
sor ority</w>
soa k</w>
so c
soc cer</w>
sni per</w>
sma llest</w>
sk ate</w>
si oux</w>
sho wers</w>
shit tin</w>
sher wood</w>
sha ky</w>
sever ance</w>
sen ators</w>
see ks</w>
se xi
sca ms</w>
sava ges</w>
sadi stic</w>
sa die</w>
s lur
s 've</w>
ri bs</w>
ren ts</w>
rea ctions</w>
re tail</w>
re land</w>
re but
rebut tal</w>
rame lle</w>
rac coon</w>
ra zi
ra tic</w>
ra mp</w>
qui re</w>
qu id</w>
pre ference</w>
pp er's</w>
pollu x</w>
po sts</w>
po pped</w>
plu tonium</w>
plea sures</w>
plain ly</w>
pit ching</w>
pi gg
penit enti
pe tals</w>
part ying</w>
pan cakes</w>
pa ro
p u</w>
over rated</w>
over load</w>
over come</w>
outra ge</w>
optimi stic</w>
oh- oh</w>
oce ans</w>
obser ver</w>
ob stru
ob sta
ob scene</w>
o ke
o i</w>
nou ri
no tion</w>
no odle</w>
no ctur
ni pples</w>
ni etz
na sh</w>
n ments</w>
mun ro</w>
mo e
min d
mi sh</w>
memor ize</w>
mea dow</w>
mc p</w>
mastur bation</w>
marse illes</w>
mar in
manu script</w>
man ze
man ages</w>
make -
mag ruder</w>
ma scar
m tv</w>
ly le</w>
lu dwi
lo mon</w>
lo gged</w>
lion el</w>
lin g's</w>
lie b
la ds</w>
l int</w>
kna ck</w>
kill ings</w>
ki mber
kee pers</w>
jun g</w>
jor gensen</w>
jon as</w>
jo lly</w>
je z</w>
ja hn</w>
is la</w>
inspi ring</w>
in secure</w>
in cu
improvi se</w>
i' ii</w>
i reland</w>
i k</w>
i f-
hu m
house keeping</w>
hou sing</w>
holo ca
holoca ust</w>
hendri cks</w>
hea v
he es</w>
harm sway</w>
hal le</w>
ha cks</w>
gren ades</w>
gre y
gi d</w>
geo graphic</w>
gen re</w>
ge l
ga il</w>
ga i
for um</w>
flu x</w>
fli ck</w>
fi ggered</w>
fa inted</w>
f ab
exce ssive</w>
exce ss</w>
ex position</w>
evol ve</w>
er ratic</w>
entra pment</w>
encoura ged</w>
en ess</w>
el roy</w>
el bow</w>
edin burgh</w>
ed --
ear ns</w>
dot tie</w>
do bi
dobi sch</w>
do :</w>
disor i
dig iti
difficul ties</w>
diagno sis</w>
di zz
dar kest</w>
dar ing</w>
d yed</w>
d th</w>
d ski</w>
crazi est</w>
cra ppy</w>
coun tless</w>
corbe tt</w>
cor ned</w>
confir ms</w>
con stable</w>
com posed</w>
colle ctors</w>
collap sed</w>
co pe</w>
cloa ked</w>
clare mont</w>
cl one</w>
cho co</w>
chev ali
check book</w>
chan ge
cha tting</w>
cer eal</w>
cea ble</w>
ca shed</w>
c ly</w>
butter flies</w>
bur ying</w>
bur bage</w>
bulle tin</w>
bri dges</w>
bri bed</w>
bod hi</w>
bo lism</w>
bo iler</w>
block buster</w>
bea t
bea con</w>
be i
bastal di</w>
bar rington</w>
bankru pt</w>
bal oney</w>
ba yon
avi ation</w>
assig nments</w>
archdioce se</w>
archa e
anton io</w>
an e
am bi
ai ding</w>
adven tur
acade mic</w>
abdu cted</w>
a wards</w>
8 9</w>
5 th</w>
2 0,000</w>
z in
z able</w>
yo ne
y ster</w>
xe do</w>
wy nan
wynan t's</w>
wit ted</w>
wi shing</w>
wi se
whi ff</w>
what not</w>
what i'm
well --i</w>
wea kne
weakne sses</w>
wal tz</w>
wa gons</w>
wa gner</w>
vo ters</w>
veni le</w>
ven ous</w>
ven e
valentin e's</w>
vac cine</w>
va can
v 's</w>
ur ine</w>
up bringing</w>
un dies</w>
un d</w>
u tter</w>
u hhh</w>
ty ard</w>
twi sting</w>
tu xedo</w>
tri angle</w>
tre e
to pia</w>
to m's</w>
tit ty</w>
tion -
thi e
ther more</w>
th y
testi fying</w>
tea m
t- shirt</w>
t ville</w>
stuff ing</w>
stri pped</w>
stre l</w>
stre et
straighten ing</w>
sto cks</w>
sti mul
star ring</w>
star la</w>
stan zi</w>
sta le</w>
sta ined</w>
squ aw
spe lling</w>
space ship</w>
south west</w>
so mer
snor t</w>
sma ll-
sim mons</w>
silver ware</w>
si m</w>
shuff le
shuffle board</w>
shu tup</w>
shu a</w>
she mp</w>
sha g</w>
sett les</w>
sen sory</w>
se mple</w>
se cra
scul pture</w>
sar n</w>
sa mi</w>
sa ig
saig on</w>
roun d-
ri val</w>
rema ined</w>
re ssion</w>
rain y</w>
rai ses</w>
ra d
questionna ire</w>
pupp ets</w>
pronoun ced</w>
proce ssed</w>
plu mb</w>
plu m</w>
pleasan tville</w>
pi one
phi c</w>
perce ptive</w>
pe u
pe king</w>
pe dal</w>
paraly zed</w>
pain less</w>
pad ded</w>
p m</w>
ore house</w>
or derly</w>
of s</w>
octa vius</w>
occupa tional</w>
obse ssive</w>
obe y</w>
o' nei
o swal
o sity</w>
nigh tin
ni ag
niag ara</w>
newspa per
negli gence</w>
na ce</w>
n ab
mono poly</w>
mo ose</w>
mo an</w>
mission ary</w>
may nard</w>
man da
ma tical</w>
ma ster's</w>
ma lay
loo se
lo ve's</w>
lo o</w>
li vely</w>
li qui
li mit
li ddy</w>
li bbe
libbe ts</w>
li ability</w>
lech ter</w>
le eds</w>
lap top</w>
la tive</w>
la tch</w>
la di
la bs</w>
kur tz
k ok
k nu
ju venile</w>
jo shua</w>
jean- luc</w>
jacquel ine's</w>
jack ass</w>
ja cu
ja cks</w>
j our</w>
j ess</w>
j ar
is --
interru ption</w>
inter ce
infer ior</w>
infan try</w>
in o
in 't</w>
impo sing</w>
ho oper</w>
hit ter</w>
him --
hesit ation</w>
hell -
haw ks</w>
haun ting</w>
har rison</w>
hallucin ating</w>
haddon field</w>
ha cking</w>
gy man</w>
guil der</w>
gui des</w>
grun t</w>
gra mmy</w>
go re</w>
gir dle</w>
gi e's</w>
gho st
gener osity</w>
ge ller</w>
gar ten</w>
gabri ela</w>
ga yle</w>
g- g-
g m</w>
g allo
fur thermore</w>
fur nace</w>
fu ri
frustra ting</w>
frighten s</w>
fran co</w>
for get
flu id</w>
flea s</w>
fla vor</w>
fe mini
far ming</w>
far ce</w>
eye lash</w>
extra terrestrial</w>
exten ded</w>
erop hon</w>
en ters</w>
e fficient</w>
du bious</w>
dri fter</w>
don' t-
domin ation</w>
doct or
do ms</w>
disa llowed</w>
diplo ma</w>
di ssi
devi ant</w>
dest ined</w>
delan ey</w>
del hi</w>
de w</w>
de secra
de jesus</w>
dari en</w>
dar t
d' al
d'al gout</w>
d c</w>
d 've</w>
cze cho
czecho slovaki
cur b</w>
cti onary</w>
cra mp</w>
cra f
cour tyard</w>
cou rier</w>
conver t</w>
consci ously</w>
con sarn</w>
compre hend</w>
col wyn</w>
ck y-
cinna mon</w>
chin o</w>
che que</w>
cha pel</w>
can o</w>
buff et</w>
bor is</w>
boat man</w>
board walk</w>
bo b
ben ding</w>
bell erophon</w>
be tty's</w>
be sto
bar ker</w>
ban ker</w>
ba u
ba tty</w>
ba ton</w>
ba ths</w>
attemp ts</w>
at us</w>
as th
arran ging</w>
argen tina</w>
ar d's</w>
ar bo
apologi zed</w>
any a</w>
ambu sh</w>
along side</w>
alon zo</w>
ali sm</w>
ada pt</w>
ab road</w>
a stro
a shore</w>
a ero
7 1</w>
5- 4
5 000</w>
5 0
4 -
3 .
2 ,000</w>
-of- the-
zim mer
z 's</w>
yea h--
ye llin</w>
y um</w>
y lli
ylli um</w>
wil fred</w>
wi mp</w>
who o
whittle sley</w>
wha daya</w>
wh or
west 's</w>
we ster
wash er</w>
wan tin</w>
wa shes</w>
wa i
wa dda</w>
vio la</w>
veter an</w>
ve s
ve in</w>
vari able</w>
van tage</w>
under world</w>
u t
ut most</w>
u dall</w>
ty rell</w>
trau mati
transp orters</w>
trans mitted</w>
tra mp
tor turing</w>
to ed</w>
tit a</w>
ti be
thir ds</w>
ther mal</w>
theore tically</w>
tha mp
tha la
thala mus</w>
territ orial</w>
teri zed</w>
swe den</w>
stin ky</w>
sti fler</w>
stal lion</w>
specu late</w>
spe lled</w>
sp eng
speng ler</w>
sp a</w>
slo ppy</w>
sle y's</w>
sla mmed</w>
sku lls</w>
si mone's</w>
sha ved</w>
sha ttered</w>
sha piro</w>
sha n</w>
sh hhhh</w>
sett ling</w>
sen sation</w>
sea food</w>
screw ball</w>
scan ners</w>
scag ne
scagne tti</w>
sali eri</w>
sales men</w>
sa ts</w>
sa ls</w>
s war
s men</w>
rough ly</w>
rober to</w>
ro ckets</w>
ro c</w>
ri fles</w>
rhy mes</w>
reser voir</w>
repa ired</w>
relea ses</w>
regu larly</w>
rea lm</w>
rea l
re voir</w>
re signed</w>
re ign</w>
re ese</w>
ra shid</w>
ra ine</w>
quen tin</w>
que z</w>
pyrami d</w>
pro ps</w>
pri vy</w>
premi ere</w>
practi ces</w>
por sche</w>
poo ls</w>
po a
pengu ins</w>
pe te's</w>
pe p</w>
pati ent's</w>
par ting</w>
pa w</w>
ough tta</w>
on e--
on board</w>
ok ay
ok a
o lives</w>
nin er</w>
news stand</w>
negoti ations</w>
mush room</w>
movi e's</w>
mother -
mor ons</w>
moon ey</w>
mitche ll's</w>
miser y's</w>
min ski</w>
min ding</w>
mil k
migh ta</w>
mi schi
mi cal</w>
meli ssa</w>
me ga
mar cel</w>
mar a</w>
man power</w>
mali bu</w>
malcol m's</w>
mai d's</w>
m one</w>
m mel</w>
lyn 's</w>
louis a</w>
long fellow</w>
lo sin</w>
le o's</w>
le er</w>
le elo
leelo o</w>
ld a</w>
land lady</w>
la tory</w>
la sers</w>
la cy</w>
ki ck-
ke lly's</w>
kat ka</w>
ka minski</w>
k not</w>
jun e
june bug</w>
jelly fish</w>
jean- louis</w>
je suits</w>
jan ine</w>
it as</w>
iran off</w>
in ning</w>
impo tent</w>
implan ted</w>
i van</w>
ho ff
he '
ham burgers</w>
h m
gu ff</w>
grand ma's</w>
gra ceful</w>
gra ble</w>
go zer</w>
go als</w>
glit ch</w>
gil bert</w>
gen ts</w>
gen ic</w>
ga ske
ga ming</w>
g ou
fuck en</w>
fuck -
fu mes</w>
fru stration</w>
fool 's</w>
floo ded</w>
fi gger</w>
far ren</w>
fan ucci</w>
fa ti
eye sight</w>
exqui site</w>
expe ct
exi le</w>
ex its</w>
esc or
er son</w>
engli shman</w>
engine ered</w>
encoura ging</w>
en to
eigh ties</w>
dyna mics</w>
disgu sted</w>
di sen
di ct
dela croix</w>
de lly</w>
davi d's</w>
critici ze</w>
cour teous</w>
convi cts</w>
contin ental</w>
consu elo</w>
con spi
compensa ted</w>
compen sation</w>
come back</w>
co operating</w>
co mics</w>
co mical</w>
co cked</w>
clo sure</w>
cli cking</w>
chauffe ur</w>
char lotte</w>
ch lo
car rots</w>
c ds</w>
bul b</w>
bu ick</w>
brigh test</w>
boy friend's</w>
bor din
bo gus</w>
ble eds</w>
blackma iling</w>
bi z</w>
ber yllium</w>
ber ger</w>
be e-
bal li
ba tting</w>
at u</w>
assistan ts</w>
announ cing</w>
anna 's</w>
am ity</w>
al an's</w>
agen da</w>
admi ra
accu sation</w>
ac he</w>
absor b</w>
a war
5 3</w>
zi o</w>
z burg</w>
yar n</w>
yaku sho
yakusho va</w>
wor k's</w>
wol f's</w>
wil kins</w>
whi ms</w>
we il</w>
war 's</w>
wa x
wa tts</w>
wa it'll</w>
w ong</w>
vi king</w>
vi cky</w>
ur us</w>
under statement</w>
un to</w>
un limited</w>
un easy</w>
tro phy</w>
tri pping</w>
tri fied</w>
tor onto</w>
tor ment</w>
top side</w>
tin um</w>
time -
thor ough</w>
thirty- nine</w>
the o
tele grams</w>
te nor</w>
tain ing</w>
tail or</w>
ta sk
task er</w>
t zes</w>
t --i</w>
syn the
sympathi ze</w>
sun 's</w>
sump 'n</w>
sub ver
su mmon</w>
su mb
su gar
studi os</w>
stu ttering</w>
stu ffy</w>
stoo ge</w>
sto wn</w>
ste ful</w>
sour ceful</w>
so lomon</w>
smugg lers</w>
sma ll
slee pin</w>
sle dge
six pack</w>
si sburg</w>
show time</w>
sher on
she er</w>
sh hhhhh</w>
senten ces</w>
sen sed</w>
sele ct</w>
sel dom</w>
secur ity's</w>
se wers</w>
se m
scre ens</w>
schae fer</w>
savi or</w>
san kara</w>
samu ra
samura i</w>
sal zburg</w>
s law</w>
rus sell</w>
rober ts</w>
ro ston</w>
ro e
restra int</w>
repla cing</w>
ren ting</w>
relati vity</w>
relati vely</w>
refu ge</w>
rebe llion</w>
re sourceful</w>
ra spu
ra pes</w>
r itu
qui z</w>
qu anti
pu tz</w>
pu r</w>
prosecu tor</w>
pres sures</w>
pre sses</w>
posse ssions</w>
poly meri
po odle</w>
po lls</w>
pla toon</w>
pizz as</w>
perpe tual</w>
per t</w>
per il</w>
pe dia
pa y-
pa thi
p ru
p ours</w>
p ledge</w>
p board</w>
overwhel ming</w>
out law</w>
on- line</w>
odd ly</w>
obliga tions</w>
oa sisburg</w>
o leg</w>
nymp ho
noti cing</w>
nostal gia</w>
noctur nal</w>
ni kko</w>
ni kes</w>
na dia</w>
my thology</w>
mu ham
muham mad</w>
mir tha</w>
mercen ary</w>
mer ly</w>
men tor</w>
mean est</w>
me try</w>
mckin ley</w>
mb w
may flower</w>
mass eria</w>
mar r</w>
mar l
manufact ur
manife sted</w>
man ure</w>
man tini</w>
maj or
magne to</w>
magn itude</w>
mac neil</w>
ma lt</w>
ma len
ma donna</w>
ma ckey</w>
lun ches</w>
loo m</w>
lo w's</w>
lo ony</w>
life less</w>
libra rian</w>
la throp</w>
la mont</w>
la cer
la -
l out</w>
l ounds</w>
kir ke
kirke by</w>
ki lo</w>
ken ed</w>
k y's</w>
k ung</w>
judi cial</w>
ju piter</w>
je zzie</w>
ir win</w>
intru der</w>
interpre tation</w>
inter cept</w>
indi scre
indi ct
import antly</w>
im moral</w>
i est</w>
hydro gen</w>
hur tin</w>
hu bert</w>
hon or
ho pper</w>
ha bit
gro ss
green teeth</w>
gib ber
gibber ish</w>
gi u
gi gan
gigan tic</w>
geor gina</w>
geoffre y</w>
ge es</w>
ga ting</w>
ga mma</w>
g non</w>
g lands</w>
g lan
freigh ter</w>
fre ed</w>
fre ddy's</w>
for merly</w>
follo win</w>
fish in</w>
finger tips</w>
fi re-
fi ll
ffe l</w>
fella 's</w>
febru ary</w>
fan atic</w>
fal sely</w>
f abi
exerci sing</w>
evalu ate</w>
ev ue</w>
ev ere</w>
ess entially</w>
esco bar</w>
equ ation</w>
enjo ys</w>
ele k
e mory</w>
e lly</w>
e less</w>
drun ken</w>
dro id</w>
dri dge</w>
drex l</w>
down load</w>
divor ces</w>
dis solve</w>
dicta te</w>
diabe tes</w>
di mini
di gs</w>
despi cable</w>
depen dent</w>
del ga
defle ctor</w>
dedi cation</w>
de pra
de generate</w>
da u
d ons</w>
cul tures</w>
crui sing</w>
cri es</w>
cra shing</w>
cra in</w>
cr m</w>
court ney</w>
coun tdown</w>
consist ent</w>
con front</w>
con do</w>
common wealth</w>
commit ting</w>
combin ations</w>
com bs</w>
co py
clu ett</w>
cli max</w>
cli cks</w>
claren don</w>
che m</w>
chan dler</w>
cha mber
cere bra
cerebra l</w>
ce ti</w>
casu alty</w>
car ru
car l
ca vern</w>
ca shi
ca lla
ca bles</w>
bur sts</w>
bu -
bro ok</w>
brit ons</w>
bra slow</w>
borro wing</w>
bobb y's</w>
bo xing</w>
bm w</w>
bell y-
bell evue</w>
bed rooms</w>
bed bugs</w>
bea ds</w>
be y
bapti st</w>
bal a</w>
auditi ons</w>
assu mption</w>
asse ss</w>
as set</w>
ar mani</w>
ar bit
anten na</w>
andro id</w>
al lah</w>
af t</w>
admit tance</w>
accompli ce</w>
ab normal</w>
aa a</w>
a waiting</w>
a muse
a ge
6 8</w>
5 6</w>
198 4</w>
-- don't</w>
- safe</w>
zz led</w>
zu u
zuu l</w>
z il
y e-
x- rays</w>
wren ch</w>
worshi pped</w>
wo ol</w>
whi m</w>
wee ds</w>
we ve</w>
we -
water melon</w>
watch man</w>
war d's</w>
wal k
vi bes</w>
ven worth</w>
ve- in</w>
valu ed</w>
ur ges</w>
up hold</w>
up ham</w>
under dog</w>
un harmed</w>
ul nerable</w>
u ating</w>
tur a</w>
ts i</w>
trespa ssing</w>
transp lant</w>
trans ition</w>
toler ance</w>
to mmy's</w>
tigh ter</w>
ti pp
ti ana</w>
thro ttle</w>
thri lling</w>
thre sho
thresho ld</w>
tho od</w>
thank ful</w>
th- th-
ten ant</w>
techni ca
te mp</w>
ta tiana</w>
t ford</w>
swee t
susan 's</w>
sur geons</w>
success fully</w>
su ckin</w>
stea ls</w>
st even
squ ad
squad ron</w>
spi der
spher ic</w>
sp he
sopho more</w>
sole te</w>
snoop ing</w>
sna p
smi led</w>
smar ts</w>
sla yers</w>
ske tch
sit h</w>
sing les</w>
sil o</w>
should 'a</w>
sho veling</w>
shi e</w>
seventy- six</w>
seme ster</w>
seiz ure</w>
scri pture</w>
sat ani
sa te</w>
sa 's</w>
ro llo</w>
ro cking</w>
rio ts</w>
ri ll</w>
rhyth m</w>
retri eve</w>
reti ring</w>
representa tives</w>
read out</w>
razi el</w>
ran cho</w>
pu mped</w>
pu llin</w>
prover b</w>
proje cti
profan ity</w>
pro di
pro cessor</w>
pro bie</w>
pri mer</w>
power 's</w>
po lar</w>
plan ting</w>
phi lly</w>
phi lan
peter sburg</w>
pep si</w>
pe cker</w>
parti cle</w>
parti cipa
paraly sis</w>
pa te</w>
pa r</w>
p run
p ren
p ran
oun ces</w>
or tho
occur rence</w>
ob solete</w>
o ma
oma ha</w>
nove list</w>
nine teen-
night fall</w>
ne y
ne bra
nebra ska</w>
nar d's</w>
na da</w>
mun cie</w>
mor ally</w>
mo wer</w>
mo or
mis fortune</w>
mis fits</w>
mis demeanor</w>
min a</w>
mi o</w>
mi lls</w>
merchan dise</w>
meat loaf</w>
mea su
me tric</w>
mascar a</w>
ma to
lun de
lun ch
lo ft</w>
ll l
ligh tly</w>
lieb kind</w>
lic it</w>
liber al</w>
lever age</w>
len ces</w>
lee ches</w>
lea venworth</w>
le ttin</w>
lar es</w>
lar a</w>
la goon</w>
kid --
kev in's</w>
kel vin</w>
ke ttle</w>
justi fy</w>
inv ulnerable</w>
initi al</w>
in jected</w>
igh t-
i mbal
hy man</w>
hu x
hormon es</w>
ho b
hit man</w>
hin ts</w>
hi ck
hear t's</w>
hay worth</w>
haro ld
har ding</w>
half- hour</w>
ha gen</w>
ha ck
h itch</w>
gru b</w>
gro win</w>
gor a</w>
giv ea
gin al</w>
gi ers</w>
gg les</w>
geo graphy</w>
ga zzo</w>
g lum</w>
ful filling</w>
frau lein</w>
fle ming</w>
five- hundred</w>
fire power</w>
fe ur</w>
fa ked</w>
fa cul
f lares</w>
extra ction</w>
expre ssing</w>
every time</w>
es par
er adi
equ ally</w>
enthusi a
elev ators</w>
ed ness</w>
e 'll</w>
dy ne</w>
dun n</w>
du -
dor een</w>
don or</w>
disci ples</w>
den nings</w>
de mo</w>
de lla</w>
de cline</w>
dar ed</w>
da dd
d'oeuv res</w>
d m
cover t</w>
corre cted</w>
cor vis</w>
cor ey</w>
cor de</w>
cook 's</w>
contribu te</w>
consig liere</w>
conditi oner</w>
conclu sive</w>
con tains</w>
con corde</w>
colo ssal</w>
co sting</w>
clin ical</w>
choo ses</w>
chi sel</w>
chi pper</w>
chi lly</w>
cheri sh</w>
challen ging</w>
celebra ted</w>
ce less</w>
cas bah</w>
ca ller</w>
c b</w>
bur gun
briga de</w>
brea n</w>
bor k</w>
boo king</w>
boo by</w>
bolshevi k</w>
bo a</w>
blu ffing</w>
bloo d-
bla sphe
bin ary</w>
bi lling</w>
bi ggie</w>
bi 's</w>
be ep</w>
bayon et</w>
bastar d's</w>
bar on's</w>
ban k's</w>
back ers</w>
ba g
aven ge</w>
auto -
au dit
attor neys</w>
atten dant</w>
asse mb
ar thur
ar che
anno y</w>
ana esthetic</w>
an nex</w>
an gora</w>
am ing</w>
al er
aggre ssion</w>
after life</w>
adju sting</w>
abdu ction</w>
ab by</w>
a we</w>
a to</w>
a dam
4 1</w>
25 0,000</w>
2 3rd</w>
zer o-
y uri</w>
x a
with -
wh orehouse</w>
we dd
way ne's</w>
water ed</w>
vo or
voor hees</w>
vi cin
vicin ity</w>
v ory</w>
v it</w>
un ner
ulti mately</w>
ty pho
tur ley</w>
tu tor</w>
tu ri
tri x</w>
tra ct</w>
thorwal d's</w>
thin 's</w>
thera peu
teri or</w>
tan gled</w>
ta s</w>
ta i
ta d</w>
ta -
t- out</w>
t --you</w>
sur vey</w>
su ns</w>
su ing</w>
sti cky</w>
ste ward</w>
sta ture</w>
ss en</w>
spin ning</w>
sp lin
sor cer
somer set</w>
soci ally</w>
soci alist</w>
snea ked</w>
sna ck</w>
sin gly</w>
sin atra</w>
side ways</w>
si ghted</w>
si erra</w>
shoo ters</w>
shi thole</w>
sh i'
sen try</w>
sen sual</w>
sen ate
see ds</w>
scu tt
scot t's</w>
schizophren ic</w>
scenari os</w>
scan ner</w>
satis fying</w>
sa m
s self</w>
s bury</w>
roo ster</w>
ro bot</w>
ro be</w>
rin et</w>
rid ge
ri sa</w>
ri c</w>
rest room</w>
re mbran
re ed's</w>
re cl
recl use</w>
rai ded</w>
ra tes</w>
prostitu tes</w>
prin ting</w>
poten ti
pli ers</w>
pla ster</w>
photogra phy</w>
pet ition</w>
persi st</w>
penitenti ary</w>
pen ding</w>
pe g</w>
pe ek</w>
payo ff</w>
patho logical</w>
parti ally</w>
pa tty</w>
pa ddle</w>
overwhel med</w>
out fits</w>
or da
oni sts</w>
on o</w>
ome ga</w>
olympi c</w>
occu py</w>
ob tain</w>
o te</w>
no tch</w>
nn n</w>
nine ties</w>
nin ja</w>
ni m
ni ko
niko las</w>
ne sting</w>
na is</w>
muti lated</w>
mpo c</w>
mor locks</w>
moon an</w>
mo aning</w>
mmmm mmm</w>
miracu lous</w>
metho di
men ting</w>
memor able</w>
me linda</w>
mbw un</w>
mar gar
manze tti</w>
mana ging</w>
man son</w>
man ray</w>
ma tching</w>
ma it
ma gu
m uni
lun d</w>
luck ily</w>
lu v</w>
lo mpoc</w>
list ens</w>
len in</w>
lech ter's</w>
le sion</w>
le ptic</w>
lay ton</w>
la yout</w>
la sa
la ps</w>
la cro
lacro sse</w>
kur ten</w>
kno ck-
kin near</w>
kimber ly</w>
k g
kg b</w>
juli us</w>
it ance</w>
it an</w>
interpre t</w>
inten tionally</w>
inte stin
insul ts</w>
inher itance</w>
ing en</w>
in sure</w>
in geni
ingeni ous</w>
in conceivable</w>
in coming</w>
in ce
im personal</w>
il ers</w>
[...]
